{"河": 708154, "南": 1878133, "省": 1303274, "社": 1572962, "区": 3384251, "矫": 25307, "正": 2587005, "监": 1025723, "管": 2963493, "工": 4710392, "作": 5988785, "若": 371146, "干": 1013554, "规": 2081406, "定": 4337896, "（": 3497299, "试": 1457022, "行": 8295071, "）": 3557903, "(": 2199185, "图": 1392463, ")": 2259378, "第": 2846502, "四": 1469687, "章": 516494, "请": 1213650, "假": 569458, "、": 22813169, "迁": 144581, "居": 803776, "及": 3162369, "会": 9030136, "客": 1455930, "三": 3237130, "十": 1713567, "五": 1112530, "条": 1320484, "人": 15880853, "员": 2855711, "未": 1492912, "经": 5562628, "批": 630143, "准": 1534955, "不": 17229373, "得": 4536887, "离": 938054, "开": 5110589, "所": 3830210, "住": 1125072, "的": 69779286, "县": 693073, "市": 6261454, "。": 43194535, "六": 530963, "因": 3172831, "就": 6866660, "医": 1481254, "家": 6837179, "庭": 496686, "重": 3784189, "大": 12733225, "变": 2035036, "故": 677746, "等": 4443416, "原": 2180753, "，": 107839339, "确": 1396832, "需": 2105431, "在": 17236861, "七": 393122, "日": 6037592, "以": 9217012, "内": 3906871, "报": 3151736, "司": 3703887, "法": 3990001, "；": 2779814, "超": 1371543, "过": 5785476, "由": 1917541, "签": 461871, "署": 178104, "意": 2978278, "见": 1343081, "后": 6416753, "级": 1756082, "政": 2351373, "机": 4599750, "关": 4448594, "审": 693715, "并": 2868413, "填": 148516, "《": 2707495, "外": 3340424, "出": 7651339, "表": 3073594, "》": 2714395, "一": 23508694, "次": 3154536, "个": 10260194, "月": 4731523, "到": 8277936, "期": 3829851, "仍": 534249, "有": 17045559, "求": 1795282, "新": 5539359, "办": 1455437, "理": 5072864, "手": 3303988, "续": 1507377, "发": 7874375, "证": 2198862, "明": 3077001, "返": 156670, "回": 2058660, "地": 6078046, "时": 9333079, "应": 2755196, "立": 1748123, "即": 1158401, "向": 2170502, "告": 1710086, "销": 1307198, "将": 4020530, "交": 2996614, "八": 502216, "更": 3428269, "九": 340885, "生": 7964394, "活": 2492913, "要": 8656085, "当": 3403618, "提": 3307179, "前": 4949600, "书": 1314134, "面": 4896803, "申": 612702, "写": 603234, "征": 524564, "决": 1339540, "自": 5936343, "收": 2538873, "之": 4317968, "起": 3081145, "接": 2054861, "受": 2071785, "闻": 494432, "媒": 566036, "体": 4452037, "采": 973055, "访": 402818, "境": 965470, "士": 1081387, "事": 3987162, "先": 1751670, "来": 8544587, "者": 4504653, "基": 3385919, "本": 4966962, "情": 3529483, "况": 1352347, "帮": 673515, "困": 399603, "扶": 228092, "助": 1138135, "二": 2367060, "对": 7203350, "业": 8393748, "方": 6082460, "现": 5898422, "难": 1256248, "协": 799470, "调": 1986919, "相": 3081502, "部": 4146554, "门": 2144812, "其": 4159735, "予": 311945, "解": 2294707, "临": 540408, "性": 3471425, "根": 1146434, "据": 2635692, "实": 4662483, "际": 1250953, "组": 1594511, "织": 578188, "展": 3013468, "文": 2959951, "化": 3746453, "和": 9521083, "职": 992862, "技": 2003809, "能": 8009299, "培": 539547, "训": 517683, "指": 1835345, "导": 1748377, "落": 877024, "保": 3096358, "障": 413494, "措": 277468, "施": 1031348, "鼓": 226143, "励": 291137, "学": 6151293, "习": 1164250, "知": 2044692, "识": 1158273, "为": 11500215, "参": 1307953, "加": 3999847, "电": 3586536, "函": 58531, "高": 5363903, "教": 2183219, "育": 1464151, "考": 2099672, "供": 1463646, "必": 1037991, "件": 1875208, "成": 6863044, "年": 9864068, "没": 3108679, "完": 1705654, "义": 784427, "务": 3497751, "督": 277094, "促": 400807, "护": 918926, "国": 10037261, "被": 2522012, "剥": 39666, "夺": 147055, "治": 1140267, "权": 1388275, "利": 3028601, "上": 11017770, "服": 2109489, "刑": 169271, "罪": 300607, "犯": 303005, "可": 7162553, "愿": 530863, "心": 4191148, "辅": 181421, "动": 5919283, "台": 1995271, "账": 357539, "中": 12887808, "登": 514055, "记": 2215241, "只": 2380959, "爱": 1535413, "猴": 52751, "子": 5503354, "养": 1161101, "了": 15185365, "小": 5138209, "狗": 195362, "真": 1675012, "是": 21336944, "暖": 274208, "爆": 424334, ".": 9130486, "点": 4192029, "击": 742700, "[UNK]": 24691560, "进": 4799268, "入": 3528140, "注": 2174820, "非": 1596466, "常": 2532577, "：": 8939570, "遗": 281713, "弃": 246552, "街": 508481, "头": 1871365, "崽": 3236, "把": 1623494, "它": 1105695, "己": 2427551, "孩": 1766562, "喂": 58829, "走": 1438837, "哪": 578471, "都": 4924724, "抱": 204493, "着": 3124286, "好": 4724563, "吃": 1169720, "留": 797543, "给": 2013429, "刻": 418581, "待": 643826, "身": 2492327, "边": 974328, "远": 821083, "危": 341946, "险": 1261358, "民": 2923911, "众": 1272098, "也": 6237398, "他": 5330539, "们": 5849320, "付": 704913, "足": 1207789, "够": 889518, "食": 1277231, "物": 2339027, "希": 660315, "望": 1002447, "这": 9927210, "与": 4259693, "幸": 344265, "福": 794623, "美": 4047293, "结": 2000494, "局": 1430452, "吧": 591570, "萌": 113843, "宠": 77685, "圈": 433771, "微": 1457089, "信": 3421935, "号": 1657299, "mon": 9795, "##08": 27838, "##96": 27943, "##▲": 51385, "长": 4497090, "按": 1166370, "维": 1207668, "码": 677761, "别": 2148329, "简": 872816, "介": 740214, ":": 1113395, "宅": 166289, "久": 439846, "天": 4676981, "然": 3294401, "呆": 66476, "深": 1444449, "处": 2022855, "！": 3181457, "海": 2454881, "量": 3114475, "最": 4775897, "总": 2012808, "迷": 324866, "倒": 392415, "你": 4726780, "口": 1969893, "袋": 133986, "妖": 47888, "怪": 167935, "go": 34900, "引": 1139149, "ar": 41290, "游": 1635817, "戏": 634917, "玩": 663119, "兴": 649541, "叹": 69460, "火": 961747, "种": 2892166, "猝": 11944, "防": 979408, "式": 2579655, "款": 1622331, "7": 1372478, "初": 723848, "刚": 554311, "布": 1726568, "便": 1032449, "速": 1449531, "畅": 165853, "榜": 199967, "首": 1355038, "北": 1825990, "线": 2417353, "仅": 1071358, "器": 1013188, "崩": 48068, "溃": 45856, "英": 962904, "每": 2032649, "邮": 200947, "17": 357825, "道": 3224129, "甚": 531104, "至": 2175478, "许": 910059, "多": 6928240, "谱": 94700, "辞": 100789, "去": 2907959, "专": 1894123, "而": 4572520, "近": 1890443, "纽": 116297, "约": 1204930, "央": 498265, "公": 7043675, "园": 897898, "捕": 95465, "获": 1165027, "罕": 39007, "水": 3050990, "伊": 248855, "va": 12150, "##po": 17238, "##re": 38790, "##on": 56333, "惜": 112428, "擎": 51765, "下": 6325042, "跳": 218527, "车": 5161914, "顾": 417778, "追": 485175, "随": 1086613, "混": 266449, "乱": 241315, "潮": 274105, "抓": 318450, "凭": 179686, "借": 455203, "象": 960068, "任": 1832692, "堂": 321634, "ni": 19453, "##nt": 40574, "##end": 6440, "##o": 131495, "股": 2935811, "价": 3272563, "暴": 317880, "涨": 799512, "短": 696959, "几": 1428139, "易": 1911825, "累": 361283, "计": 3038819, "幅": 639634, "竟": 342397, "达": 1824583, "惊": 335949, "75": 94699, "%": 2459438, "值": 1713815, "船": 242991, "增": 2227704, "120": 87110, "亿": 1211970, "元": 3827401, "合": 4460919, "800": 63927, "币": 730356, "于": 6201218, "说": 4309898, "pokemon": 5098, "带": 1738576, "强": 2069208, "还": 4326357, "令": 445677, "我": 7724242, "脑": 434102, "洞": 167500, "科": 1867657, "资": 5548209, "无": 2699739, "疑": 460124, "红": 1243501, "耳": 235760, "目": 3308283, "术": 1893926, "风": 2210928, "靡": 21211, "全": 4794874, "球": 1725726, "验": 1100861, "此": 2796829, "同": 4422455, "捉": 41666, "诸": 148200, "如": 4308339, "安": 2638464, "隐": 236826, "患": 430714, "侵": 142316, "私": 344858, "问": 2198905, "题": 2362341, "质": 1803033, "论": 1160030, "何": 1355049, "功": 1328492, "思": 953343, "路": 2663322, "么": 3131346, "从": 3100574, "趋": 348809, "势": 1393704, "看": 4031202, "示": 2116128, "范": 892061, "效": 1480788, "广": 1550042, "泛": 157549, "用": 6859702, "碎": 116678, "片": 1236150, "或": 2386423, "场": 4585406, "已": 2564133, "类": 1453245, "似": 500656, "沉": 234425, "淀": 74756, "数": 3095636, "粉": 494877, "丝": 419606, "ip": 49431, "认": 1778873, "阶": 390745, "段": 1075925, "景": 964991, "该": 1683604, "壮": 119327, "观": 1444731, "擦": 110333, "摩": 238744, "卡": 723532, "创": 2111476, "始": 1323356, "宋": 165462, "啸": 12710, "飞": 644654, "济": 1304802, "+": 548763, "l": 110180, "##bs": 10850, "8": 1185918, "份": 1461007, "判": 402911, "断": 928200, "谷": 218014, "歌": 429978, "果": 3045094, "须": 536967, "bat": 12256, "●": 422913, "##ar": 32701, "顶": 377232, "让": 2459872, "虚": 280846, "拟": 250308, "世": 1525887, "界": 1405749, "精": 1418517, "灵": 378154, "互": 1081034, "核": 799608, "亮": 487643, "打": 2024210, "启": 447160, "位": 3291494, "摄": 494934, "像": 962644, "拍": 646779, "画": 639481, "叠": 70794, "皮": 704312, "丘": 38455, "杰": 170790, "尼": 386563, "龟": 24411, "些": 2760297, "藏": 412252, "角": 702654, "拿": 576050, "且": 1148052, "分": 5876433, "析": 680776, "运": 2019329, "magic": 2366, "le": 36947, "##ap": 14042, "篮": 151470, "鲸": 14490, "鱼": 423176, "比": 3612986, "较": 1568958, "影": 1879115, "少": 2022259, "疯": 105282, "狂": 177937, "除": 1033093, "素": 960291, "键": 400467, "1996": 17982, "推": 1688193, "game": 4392, "boy": 5455, "历": 955223, "版": 743060, "改": 1579884, "积": 964675, "度": 3806330, "料": 1152834, "显": 1354153, "截": 341986, "2016": 772422, "2": 2475837, "29": 171317, "系": 2529841, "列": 782633, "售": 1047165, "25": 350510, "容": 1581773, "覆": 192211, "盖": 388648, "700": 33358, "色": 1967963, "01": 72595, "套": 708102, "纳": 513315, "衍": 45077, "品": 4044467, "则": 1279543, "79": 50564, "均": 1005202, "15": 536864, "具": 1560598, "备": 1452681, "终": 880183, "端": 553607, "户": 1832592, "础": 483222, "群": 847925, "主": 3922092, "盈": 241233, "通": 3807340, "商": 2611535, "潜": 232102, "力": 4596759, "流": 1811958, "产": 4956131, "链": 283045, "称": 1284351, "费": 2093018, "设": 2669881, "置": 1108957, "旺": 128274, "盛": 337081, "另": 684726, "却": 839645, "空": 1676171, "白": 1335276, "间": 3835213, "巨": 387624, "差": 653369, "激": 606206, "山": 1699938, "寨": 70120, "统": 1836618, "围": 727440, "20": 808336, "复": 1206969, "制": 3010030, "##cat": 3546, "##che": 8370, "##mall": 1387, "-": 4631226, "hu": 28273, "##ng": 66593, "##ry": 17826, "##mon": 4972, "##ster": 7242, "宣": 511072, "早": 855706, "城": 1959649, "宝": 1362387, "梦": 372172, "造": 1744572, "粗": 120236, "糙": 19833, "掀": 36720, "波": 554666, "概": 375258, "念": 649529, "热": 1294843, "但": 3280908, "很": 3558215, "快": 1438409, "泼": 37463, "冷": 396564, "周": 1782337, "环": 1332576, "做": 2715273, "3d": 69624, "模": 1187148, "型": 1969902, "算": 997581, "槛": 58846, "曾": 660455, "师": 1690156, "持": 2406610, "华": 1593724, "泰": 313587, "券": 938267, "席": 396813, "王": 1126698, "禹": 13659, "媚": 27862, "团": 1232902, "队": 1494346, "虽": 628127, "典": 407021, "s": 178493, "##nap": 4376, "##chat": 4235, "硬": 310894, "西": 1952265, "兰": 510460, "澳": 195012, "亚": 942093, "德": 989133, "放": 1879459, "锁": 203214, "状": 717947, "态": 1133060, "想": 2392341, "各": 1901161, "封": 248926, "消": 1586045, "息": 1826383, "欣": 145394, "喜": 834440, "两": 2412092, "官": 729409, "twitter": 10876, "紧": 586242, "急": 408621, "修": 765666, "bug": 6233, "恢": 141088, "添": 221026, "麻": 255374, "烦": 143676, "歉": 40465, "否": 668638, "使": 1856914, "呢": 651705, "？": 2701497, "##ant": 10352, "##ic": 31059, "ceo": 61857, "翰": 42783, "·": 644830, "汉": 430362, "克": 1018283, "200": 182919, "致": 1131665, "升": 1336310, "陆": 330856, "军": 1096305, "依": 863936, "托": 535772, "退": 450492, "丰": 509795, "富": 875406, "2010": 93665, "6": 1393303, "集": 1536465, "响": 1025167, "支": 1463390, "撑": 249656, "话": 1571253, "错": 712150, "误": 325108, "航": 652349, "那": 2349116, "照": 1208197, "距": 320722, "异": 476055, "匹": 102364, "配": 1482991, "##i": 200917, "乐": 1294767, "逗": 35944, "马": 1363703, "东": 2259476, "5": 1910031, "熟": 388034, "缺": 460160, "乏": 172212, "企": 2034828, "益": 1094229, "诉": 606629, "平": 3118992, "限": 1405622, "猜": 89790, "测": 810610, "率": 1444510, "存": 1235172, "营": 1640273, "尚": 473397, "神": 1197992, "州": 1268703, "岳": 56327, "争": 759392, "投": 2935657, "趣": 387496, "vr": 108397, "极": 987170, "厂": 444199, "噱": 7789, "焰": 18023, "坊": 76941, "娄": 9979, "池": 239389, "预": 1317464, "呈": 228506, "悬": 134644, "买": 1245837, "单": 2155605, "族": 471281, "网": 3255377, "络": 564126, "陈": 585150, "礼": 364663, "标": 1926033, "透": 414372, "露": 522223, "万": 3033643, "占": 634710, "1": 3226738, "蓝": 379902, "港": 559952, "副": 521514, "裁": 221429, "颖": 95813, "取": 1465739, "程": 2217934, "/": 1782532, "普": 768554, "整": 1801768, "榕": 10013, "伙": 314899, "斌": 62222, "京": 1342989, "名": 3036429, "今": 1948753, "底": 928594, "china": 18580, "joy": 2175, "坐": 391729, "o2o": 44216, "切": 732083, "领": 1422356, "域": 832155, "控": 1080979, "梧": 12975, "桐": 31004, "轮": 582504, "杭": 183019, "壹": 21714, "晨": 231637, "仟": 2744, "阳": 882475, "wonderland": 121, "娱": 201414, "扫": 195172, "描": 152249, "索": 459659, "剧": 611050, "韩": 382539, "清": 1461205, "扬": 227539, "酷": 144045, "炫": 58003, "页": 177882, "盗": 125469, "墓": 120963, "笔": 455680, "骨": 288495, "铭": 44558, "吴": 249351, "邪": 40378, "泠": 1632, "印": 548111, "附": 476678, "绕": 178284, "古": 667974, "龙": 708840, "脉": 135996, "光": 1397365, "宜": 335314, "湖": 573180, "查": 1382758, "秘": 318906, "样": 2630196, "里": 3390096, "腿": 228361, "筋": 57892, "4": 2004352, "划": 996540, "鸥": 9732, "购": 1377277, "共": 1317163, "欧": 576232, "40": 290283, "移": 581573, "联": 2271475, "牌": 1148189, "ios": 21445, "unity": 1716, "##3d": 2316, "android": 24069, "html5": 5303, "软": 430625, "才": 1487638, "2015": 706418, "98": 105980, "##14": 39587, "51": 117307, "净": 623143, "润": 514662, "209": 7556, "##1": 311682, "53": 75207, "径": 176938, "尽": 689017, "形": 1429308, "载": 568065, "陷": 161682, "耗": 184953, "稳": 600011, "视": 1628458, "觉": 1129857, "踪": 97473, "co": 50592, "幼": 204249, "儿": 1481599, "例": 815490, "熊": 125989, "奥": 404317, "锐": 93389, "涂": 129184, "pad": 5561, "代": 2205743, "汽": 929878, "册": 255784, "某": 877739, "详": 238033, "细": 841161, "项": 1900694, "触": 297649, "连": 1009663, "鉴": 167815, "享": 727208, "顿": 200989, "刘": 538142, "江": 1021227, "宇": 157891, "娟": 22413, "银": 1354618, "金": 5376673, "墉": 1371, "欢": 813301, "迎": 405289, "洲": 466506, "智": 841155, "库": 418504, "战": 1459417, "略": 707561, "研": 1330772, "究": 1013499, "货": 869985, "春": 582444, "季": 900349, "议": 1510632, "揭": 118980, "幕": 313396, "演": 984838, "讲": 716582, "建": 2942138, "劳": 337435, "减": 847695, "贫": 290348, "举": 772638, "讨": 273348, "尤": 312789, "穷": 107627, "脆": 74253, "弱": 284336, "倡": 63973, "歧": 39596, "[": 204199, "奖": 661510, "]": 204098, "答": 433544, "赢": 199097, "感": 2195827, "谢": 339854, "吗": 577653, "100": 389761, "充": 824793, "归": 327160, "仁": 134405, "the": 177125, "cat": 6564, "##cher": 3199, "in": 92037, "r": 64999, "##ye": 7403, "##t": 232796, "##lk": 4095, "树": 352248, "繁": 185683, "花": 1380314, "茶": 456496, "san": 9707, "##nic": 6489, "##os": 23672, "##mic": 5434, "da": 26118, "##wn": 5542, "珊": 36884, "瑚": 14730, "50": 474822, "荼": 9052, "蘼": 233, "徐": 199556, "艺": 781326, "哲": 77357, "john": 7559, "d": 129537, "wang": 4989, "mike": 2569, "慧": 201195, "君": 190113, "卓": 99663, "星": 1023112, "驰": 109152, "佳": 382179, "烟": 238865, "霄": 9354, "云": 696093, "散": 323983, "忘": 190149, "坚": 577949, "sean": 736, "shi": 11657, "##f": 108689, "f": 122847, "##low": 3825, "##er": 90556, "206": 8731, "##10": 91753, "##26": 33777, "##54": 19641, "##9": 288365, "翅": 28286, "翔": 84995, "漪": 4917, "k": 175570, "##ira": 1474, "##ki": 9947, "##ra": 60347, "笨": 22668, "钟": 546118, "郭": 146197, "鹰": 59169, "30": 737117, "赤": 64766, "输": 400059, "彭": 71659, "敏": 209553, "阿": 549978, "vip": 32794, "勇": 198375, "眼": 914457, "镜": 271140, "盒": 93162, "青": 903575, "草": 335512, "瓜": 178031, "味": 844430, "李": 859168, "璐": 19435, "冯": 77574, "再": 1693595, "雷": 305178, "漫": 240528, "步": 1433343, "oo": 1647, "a": 474539, "屠": 24613, "毕": 395024, "艳": 116660, "剑": 110406, "胆": 131165, "琴": 86309, "專": 707, "屬": 665, "〖": 2222, "莪": 404, "〗": 2216, "亦": 157770, "闲": 190265, "祥": 95873, "旅": 820442, "途": 267457, "狼": 61421, "张": 1386871, "凡": 170351, "罗": 603256, "湘": 66394, "151": 14321, "##12": 50316, "##50": 59429, "##44": 23589, "##98": 32049, "郎": 68606, "濡": 4532, "沫": 74184, "瞎": 19745, "扯": 33094, "淡": 206019, "千": 634612, "百": 971704, "chang": 2353, "##sha": 6131, "hot": 5094, "蔡": 73739, "颜": 302722, "笑": 401448, "忧": 127105, "伤": 602223, "x": 118127, "##mc": 6904, "##d": 187008, "##h": 102022, "侠": 60600, "琪": 27859, "one": 24693, "two": 4011, "静": 353190, "踏": 111078, "燕": 90695, "sky": 5035, "##b": 152061, "##lu": 16956, "##e": 178874, "梁": 175633, "耀": 130635, "lo": 31981, "##ser": 8198, "宁": 483160, "祁": 10901, "糖": 308583, "振": 145410, "伶": 6587, "t": 212426, "##ro": 38706, "##ub": 9865, "##le": 47796, "maker": 784, "兑": 101675, "友": 1479447, "编": 729340, "#": 122081, "10000": 43186, "##000": 24711, "138": 20946, "*": 298337, "字": 911548, "止": 774559, "10": 1913499, "31": 218693, "缴": 171555, "讯": 599343, "秉": 34488, "志": 609752, "院": 1672064, "厅": 348627, "2014": 649468, "承": 721992, "担": 641625, "老": 2355132, "革": 600695, "策": 1053678, "层": 800055, "休": 352478, "源": 1522790, "补": 691975, "适": 1002417, "额": 1088168, "扣": 203386, "直": 1857237, "转": 1625445, "选": 1886563, "择": 855504, "遇": 568014, "契": 75690, "继": 659362, "余": 603259, "轻": 844037, "委": 999260, "妈": 834477, "声": 707341, "越": 1330927, "秀": 451635, "粤": 36903, "语": 813155, "苹": 202760, "mv": 15780, "80": 249532, "##90": 50798, "独": 722550, "特": 2357920, "鲜": 431956, "材": 738176, "盏": 12914, "鬼": 113047, "词": 331146, "捧": 59719, "222": 9427, "163": 21460, "##2": 327329, "90": 210741, "768": 2462, "400": 137010, "格": 2245503, "500": 175667, "悉": 301097, "伯": 138260, "往": 1013364, "爷": 154007, "聚": 338472, "停": 744711, "言": 920969, "苦": 349877, "婆": 186460, "吵": 57183, "架": 334591, "夫": 525388, "妇": 254166, "节": 1488264, "戴": 191634, "袖": 75733, "卫": 555827, "送": 664049, "贴": 365077, "忆": 191054, "犹": 87052, "纪": 628258, "邻": 90896, "沟": 223440, "逮": 19489, "构": 1256779, "衣": 561288, "执": 561902, "府": 779852, "懂": 270294, "盘": 945748, "巡": 169950, "孤": 95995, "寡": 22111, "残": 153819, "疾": 245244, "探": 347073, "ipad": 14421, "释": 296118, "候": 1260103, "捷": 158745, "座": 709117, "跃": 164658, "传": 1656234, "18": 393062, "聪": 100069, "怎": 703677, "童": 416688, "房": 1996070, "装": 1274480, "巧": 252238, "妙": 130671, "喔": 11014, "!": 376975, "床": 260072, "铺": 171960, "柜": 110422, "3": 2537531, "杂": 308099, "斜": 61268, "屋": 246369, "稍": 122444, "瞬": 98955, "档": 242192, "允": 180763, "伸": 131705, "缩": 254212, "哦": 249369, "旧": 300209, "9": 1016663, "板": 876361, "11": 693440, "搞": 186938, "12": 722901, "摇": 116079, "沙": 428596, "13": 357034, "乾": 36943, "坤": 38674, "桌": 131577, "14": 352772, "雀": 33268, "脏": 164382, "俱": 129257, "啊": 352009, "丁": 175980, "浪": 275318, "16": 359650, "又": 1312728, "齐": 250833, "http": 103633, "www": 119593, "qi": 11584, "##zu": 5563, "##ang": 25582, "com": 211167, "me": 52539, "##it": 21339, "##u": 95142, "?": 2144191, "sr": 10483, "##c": 177262, "=": 322597, "ll": 5498, "##js": 6882, "##j": 120413, "免": 818412, "戳": 30746, "zh": 23289, "##ao": 30807, "##bia": 6689, "99": 101297, "钱": 1041299, "站": 1129807, "【": 767286, "祖": 144172, "楠": 36879, "】": 766920, "雪": 311530, "佛": 315209, "鲁": 218046, "兹": 57125, "##x": 218091, "##3": 301611, "吝": 7281, "啬": 4721, "32": 91410, "赞": 220201, "嘛": 75046, "~": 586763, "渡": 93886, "蜜": 163849, "汁": 125415, "愧": 28094, "双": 970458, "胞": 138792, "胎": 232450, "绝": 555237, "爹": 28408, "泥": 143335, "饭": 378589, "犀": 18485, "秒": 161891, "猫": 170840, "咪": 31478, "臭": 51668, "兄": 103493, "弟": 208789, "跌": 523559, "糗": 2377, "伴": 363026, "啦": 185521, "嗨": 21685, "汪": 74107, "甘": 154286, "拜": 115749, "晒": 130372, "太": 1201816, "翻": 286224, "跟": 740519, "pp": 14865, "抖": 30135, "咦": 2473, "叫": 392777, "爸": 358708, "仿": 133926, "呀": 73346, "嘿": 39806, "哈": 346628, "棍": 21901, "呵": 55823, "厉": 96482, "害": 545106, "浅": 89645, "咧": 9920, "嘴": 143135, "唱": 216477, "什": 1451058, "骑": 142175, "黑": 658309, "掉": 335665, "凑": 55141, "suv": 110113, "铁": 611136, "air": 15137, "##cr": 12221, "##s": 390782, "彩": 559931, "117": 19270, "津": 261591, "农": 876419, "晴": 52252, "雾": 113319, "气": 2146121, "温": 819789, "21": 304024, "##℃": 86945, "低": 1476210, "尾": 227302, "阅": 393388, "读": 750032, "您": 461542, "党": 623163, "召": 267726, "命": 803065, "午": 521634, "责": 1017098, "贯": 132363, "彻": 160883, "籍": 170529, "案": 1352544, "乡": 431579, "壁": 128254, "垒": 21860, "破": 739408, "健": 967831, "镇": 578304, "1300": 23357, "2020": 58791, "45": 137721, "2013": 261520, "沪": 125136, "0": 908864, "56": 79916, "掘": 87871, "震": 295102, "荡": 198210, "飘": 72170, "绿": 434303, "块": 568410, "306": 7964, "##5": 353198, "183": 13236, "##8": 326614, ";": 770194, "107": 21223, "##82": 26727, "62": 64404, "38": 91778, "279": 6811, "221": 7883, "##0": 645426, "86": 55997, "39": 75249, "740": 4490, "财": 1271125, "66": 63861, "善": 645983, "融": 1336189, "360": 55531, "降": 1014289, "70": 184949, "叙": 40727, "迟": 118021, "ｂ": 3039, "##ｆ": 2299, "##ｍ": 2951, "##ｔ": 3354, "##ｖ": 608, "俄": 233813, "朗": 215780, "１": 19513, "##９": 12575, "晤": 9525, "勒": 120265, "颇": 82305, "斯": 1179649, "址": 253223, "包": 1375977, "括": 583566, "土": 654145, "埃": 92732, "尔": 982804, "坦": 164229, "飓": 4163, "３": 16931, "##７": 9578, "##２": 10594, "死": 615421, "亡": 204131, "１０": 10416, "２４": 1745, "##６": 10673, "迫": 123672, "避": 372710, "湾": 259480, "遭": 233282, "袭": 134279, "严": 761401, "##８": 8776, "暂": 223623, "note7": 24753, "换": 662946, "阁": 52537, "禁": 263090, "佩": 133675, "穿": 547023, "抛": 99852, "反": 1280144, "馈": 66027, "杨": 353475, "晓": 217597, "鸿": 61825, "忠": 115525, "叶": 316166, "纯": 267432, "伏": 125470, "楼": 646147, "峰": 349512, "臧": 3770, "献": 230935, "甫": 14096, "蓟": 4584, "汕": 26044, "纵": 103703, "晋": 110749, "沿": 199476, "丽": 456490, "辰": 68122, "届": 401562, "侨": 38269, "室": 594600, "１１": 3022, "馆": 426117, "览": 193450, "４": 14103, "##０": 18250, "１２": 3429, "１５": 2781, "邀": 154267, "孔": 145355, "紫": 175027, "洪": 162663, "男": 1103432, "晚": 711796, "０": 7267, "２": 22791, "敌": 118385, "乌": 168882, "赛": 1474243, "败": 276974, "仗": 29550, "昨": 386555, "练": 488712, "束": 299408, "冠": 283632, "松": 549230, "帅": 152422, "ｗ": 2610, "##ａ": 3674, "５": 11170, "黎": 91426, "呼": 284229, "吁": 34268, "药": 765787, "弗": 83617, "拉": 1045569, "米": 1091732, "疗": 652896, "赏": 193012, "杯": 277406, "洛": 154165, "藤": 28327, "校": 1260523, "炼": 156965, "00": 374479, "尖": 145430, "寄": 88175, "宿": 143053, "嘉": 241138, "酒": 806777, "店": 1038566, "朝": 311563, "夕": 46964, "香": 792978, "桂": 103085, "延": 368060, "121": 23483, "绍": 456366, "授": 338016, "漂": 136880, "gpa": 3906, "黄": 934359, "录": 644379, "招": 771364, "优": 1415968, "sat": 9843, "绩": 537537, "1900": 7824, "耶": 50649, "林": 910905, "宾": 202277, "du": 23928, "lu": 17735, "##cl": 12650, "ka": 21310, "##pl": 12813, "##an": 64488, "education": 2074, "##al": 43045, "center": 5135, "评": 901699, "估": 432568, "筹": 248825, "－": 91903, "课": 607239, "##de": 23926, "##pe": 23962, "##nd": 19423, "##ent": 14616, "con": 30473, "##su": 11526, "##lt": 11130, "association": 1108, "si": 26493, "##vs": 3741, "##om": 22736, "##cha": 9567, "##n": 184832, "##hm": 3135, "##av": 4597, "##ong": 11406, "博": 751053, "康": 791520, "奈": 81342, "硕": 102823, "##v": 81563, "n": 93672, "##ys": 13384, "##ac": 15262, "sa": 28090, "##ca": 23034, "na": 24586, "vi": 25820, "##ctor": 4497, "yang": 2747, "筑": 300139, "裔": 20555, "满": 996187, "擅": 56455, "密": 532518, "锻": 89059, "逻": 94115, "辑": 257461, "咨": 251416, "询": 454558, "挖": 116142, "竞": 520386, "he": 39964, "##iti": 8992, "威": 375718, "mba": 17272, "垫": 72331, "##rry": 3488, "拥": 482712, "背": 525305, "综": 454208, "thomas": 2039, "芝": 100900, "哥": 319743, "荣": 289923, "誉": 152628, "夯": 12959, "辩": 61858, "译": 98376, "胜": 460924, "芳": 89542, "daniel": 2345, "la": 38688, "##ube": 2306, "##r": 144599, "乔": 99102, "dan": 5910, "ce": 16035, "ac": 30292, "##ade": 5433, "program": 2459, "tea": 4669, "##ch": 39420, "for": 41345, "central": 1235, "park": 4514, "ea": 16415, "##rl": 10044, "##y": 150422, "learning": 2100, "ss": 15503, "##at": 27133, "拓": 154641, "找": 774504, "ba": 27051, "##l": 177799, "##jin": 3225, "##ny": 11162, "##am": 24216, "##sh": 26230, "##do": 13156, "聘": 309520, "hop": 3185, "house": 5167, "sc": 27702, "##ho": 29362, "##lar": 5594, "篇": 197873, "悦": 116693, "虑": 353678, "既": 293982, "朋": 746927, "乘": 301226, "驾": 490203, "驶": 399984, "逼": 135879, "妨": 65647, "默": 193074, "惠": 410004, "荐": 316024, "蒙": 207342, "迪": 281576, "26": 255956, "58": 98308, "脸": 364647, "吸": 606698, "搭": 487970, "5t": 19582, "0t": 36958, "盲": 79394, "泊": 50789, "排": 1134884, "my": 20392, "##ford": 2588, "touch": 8600, "摸": 114567, "屏": 253964, "操": 554079, "乎": 461610, "囊": 94569, "田": 386748, "铂": 13076, "睿": 34892, "78": 68539, "碰": 153814, "撞": 157872, "警": 897279, "偏": 307272, "轴": 108481, "##mm": 64114, "毋": 13205, "庸": 40284, "4l": 23109, "v": 109270, "##te": 44676, "缸": 60478, "喷": 115414, "湿": 191799, "箱": 318893, "##dc": 5661, "89": 52919, "gs": 19105, "瀑": 24504, "栅": 34222, "獠": 750, "牙": 288613, "霸": 122147, "灯": 369502, "凸": 56058, "涡": 45060, "压": 832410, "48": 112368, "轿": 90310, "辈": 114286, "v6": 11694, "5l": 34501, "0l": 42040, "驱": 195371, "cc": 21010, "28": 233610, "34": 101121, "毫": 214995, "兆": 45002, "饱": 99503, "椅": 164367, "271": 4960, "抑": 103565, "##ts": 24989, "##si": 28681, "##fs": 8297, "ds": 19765, "##g": 191861, "23": 224793, "磅": 41532, "饰": 363343, "良": 534937, "283": 5436, "##0mm": 12412, "141": 12476, "##kw": 28898, "610": 8405, "##rp": 25353, "##m": 155788, "扭": 112787, "矩": 94840, "252": 7441, "##nm": 22352, "325": 8683, "油": 1536439, "吓": 69341, "女": 2358133, "恐": 233534, "怖": 83717, "听": 658086, "怕": 324751, "1987": 10185, "27": 212528, "斤": 145785, "胖": 110950, "呱": 5748, "谁": 340633, "鹤": 30153, "cba": 12690, "史": 649476, "mvp": 7847, "揽": 47594, "岁": 758136, "吾": 26340, "祝": 107168, "↓": 92439, "违": 430384, "半": 839828, "03": 97763, "06": 66379, "09": 80749, "54": 74599, "庞": 61966, "挑": 296946, "针": 374504, "212": 8542, "筛": 55464, "300": 177718, "挂": 306421, "钩": 42592, "鲨": 10793, "鳍": 2671, "181": 14422, "600": 110688, "455": 4579, "xa": 2511, "##us": 30158, "184": 11830, "36": 89167, "179": 12802, "127": 23743, "07": 77818, "牛": 552980, "俗": 148258, "耐": 161556, "负": 845875, "琼": 36338, "88": 84127, "94": 49883, "118": 23845, "桶": 163892, "47": 81292, "60": 260789, "吐": 118775, "22": 256085, "101": 26920, "森": 234890, "伟": 237045, "仕": 24794, "ch": 43855, "##art": 6133, "104": 24090, "br": 56875, "##ight": 10749, "倍": 285373, "gdp": 67835, "滴": 163393, "冲": 456191, "87": 57891, "33": 91806, "浦": 98042, "羊": 194366, "迅": 219736, "汛": 36040, "19": 336498, "li": 25947, "660": 7211, "偿": 196846, "57": 78580, "##70": 45120, "##52": 26635, "贵": 483103, "0020": 6970, "##93": 25515, "##32": 34314, "伦": 242293, "钢": 267036, "宗": 228430, "宽": 309546, "##24": 31475, "苏": 494271, "##58": 30276, "##11": 62891, "##6": 295134, "峡": 69600, "##28": 33439, "折": 316867, "夜": 403259, "渝": 29339, "厦": 150115, "涉": 379930, "瑞": 269607, "泡": 250572, "票": 1021047, "166": 12119, "92": 56498, "贸": 258646, "顺": 477070, "汇": 438445, "if": 21147, "##150": 7677, "##4": 277841, "69": 62110, "##65": 32627, "49": 125748, "##79": 23129, "邦": 105009, "派": 375322, "奋": 151958, "140": 31172, "玉": 330118, "株": 35113, "冶": 23829, "398": 5683, "24": 294507, "71": 54835, "锦": 118593, "1100": 14200, "税": 628656, "夏": 354768, "亏": 179477, "井": 128656, "锆": 1796, "损": 613009, "2000": 131986, "钻": 99738, "1700": 11716, "～": 44998, "##22": 49297, "##00": 103568, "圣": 193235, "莱": 144633, "83": 60933, "64": 70284, "芭": 22953, "滑": 287984, "崔": 44681, "菱": 34131, "煤": 192260, "斥": 42837, "液": 275001, "晶": 129971, "募": 244831, "72": 68355, "洋": 287768, "35": 145102, "鼎": 67883, "鹏": 100111, "莞": 75953, "1000": 134859, "锂": 31671, "赣": 19906, "锋": 150143, "携": 144687, "o": 64582, "塑": 149529, "婴": 125906, "柔": 148241, "刷": 235544, "恒": 189260, "昇": 2560, "##40": 41164, "音": 700179, "孙": 247513, "牵": 105146, "句": 346739, "夸": 60515, "se": 35423, "##ld": 17011, "##ha": 27325, "##ve": 28770, "##ime": 3509, "##tag": 2663, "##ir": 19557, "##w": 112298, "'": 72846, "sh": 44127, "##ads": 721, "##uch": 3285, "##ag": 11441, "##ift": 2508, "##of": 19264, "##ga": 19221, "##li": 42583, "##ke": 17972, "##ly": 33619, "莉": 72288, "##gi": 14293, "##ft": 10070, "般": 592772, "she": 15406, "ro": 37049, "##ugh": 6727, "di": 46167, "##ond": 4481, "alt": 6048, "see": 8148, "##ms": 13661, "to": 102259, "be": 66025, "care": 4398, "##less": 2995, "do": 29959, "##es": 32129, "ev": 23237, "##ery": 6517, "##thing": 2762, "ti": 24268, "##pt": 9411, "##op": 16150, "她": 1601454, "雕": 98844, "石": 810200, "喻": 41399, "岂": 17624, "when": 7030, "it": 82746, "come": 7802, "##chi": 10921, "g": 90343, "##ram": 5349, "##mar": 5044, "can": 19112, "not": 15430, "ab": 18531, "##ov": 4862, "all": 17783, "other": 5513, "棒": 89689, "you": 44837, "know": 5869, "her": 7748, "company": 2807, "has": 9006, "big": 8049, "dr": 16843, "with": 21404, "boss": 12536, "have": 14572, "so": 37006, "honey": 940, "##pp": 14293, "##ed": 51892, "that": 25406, "how": 8989, "tai": 2658, "##lor": 3844, "word": 11662, "please": 2006, "##rs": 25785, "of": 87228, "##ff": 19087, "##ere": 8706, "people": 8933, "甜": 191969, "惯": 255463, "sweet": 1335, "mo": 37110, "##ut": 18320, "##he": 22910, "符": 305142, "ta": 48457, "##ste": 6432, "on": 28434, "fashion": 4420, "i": 92097, "m": 79597, "su": 31159, "good": 7635, "job": 2806, "business": 5633, "ball": 2357, "肯": 268590, "ca": 38024, "##pa": 30987, "##ble": 10140, "lt": 3797, "mind": 2714, "like": 9198, "st": 86036, "##ee": 16224, "##rap": 3279, "##hing": 5814, "ne": 22683, "ex": 27255, "##aine": 1095, "twice": 375, "遍": 255546, "daily": 1994, "english": 3017, "订": 393343, "搜": 299248, "辨": 76388, "菲": 183262, "斛": 4331, "葡": 120078, "萄": 114194, "##ne": 30375, "##hoo": 2002, "豪": 305053, "撰": 35169, "|": 265652, "兔": 52182, "肆": 29881, "忌": 89340, "惮": 4908, "侧": 309166, "诞": 76355, "骗": 227843, "掐": 11282, "贩": 46171, "▲": 134671, "##19": 47382, "##99": 41411, "珍": 156918, "car": 20997, "##ru": 13396, "de": 44974, "##fit": 2755, "右": 565432, "卖": 614765, "述": 454698, "楚": 202034, "##ate": 8801, "##au": 11365, "##th": 33594, "##sch": 6073, "##il": 24176, "拼": 164714, "废": 125128, "##fe": 19865, "眩": 17156, "pa": 40555, "##ui": 26997, "##lla": 7702, "村": 970143, "茬": 6044, "木": 438715, "咯": 19693, "甲": 244129, "纹": 182584, "毛": 406136, "摆": 196748, "谓": 238233, "##2000": 3654, "瓶": 162530, "柴": 73305, "箭": 71661, "扰": 125001, "烫": 42218, "殊": 172899, "1985": 10457, "彗": 1298, "76": 59110, "2008": 83782, "帽": 71861, "堡": 81345, "磨": 149095, "唯": 215403, "谨": 109352, "慎": 126642, "虎": 217379, "渠": 193865, "靠": 442043, "亲": 817761, "赠": 98678, "欺": 56547, "坏": 260498, "矛": 84110, "盾": 101657, "伪": 75201, "庄": 231689, "pro": 49375, "玛": 97896, "扮": 96619, "侦": 74573, "柯": 53249, "辛": 147212, "寻": 281765, "end": 20992, "慈": 84557, "怀": 325531, "病": 1010252, "雄": 204108, "梅": 196847, "覃": 5052, "姚": 64669, "旬": 71855, "肠": 154264, "疡": 14736, "匮": 9766, "舍": 137540, "萧": 47341, "敷": 36581, "恶": 207013, "循": 145155, "2012": 146143, "症": 328174, "失": 934000, "诊": 209829, "2011": 109570, "韦": 45659, "枢": 37461, "750": 11556, "xx": 14644, "检": 787554, "岗": 245345, "拨": 105751, "澄": 28688, "凤": 110520, "血": 727541, "蹲": 29874, "班": 610344, "\"": 487627, "圩": 5809, "85": 83020, "贤": 66454, "腔": 79136, "廉": 102030, "阴": 237744, "茨": 40329, "via": 3540, "cl": 24472, "##ou": 12752, "_": 318972, "ed": 12865, "陌": 71947, "谅": 30004, "睛": 129921, "斗": 271769, "撤": 94748, "↓↓↓": 29656, "cv": 24062, "乖": 32109, "努": 294174, "祉": 5702, "焦": 218466, "％": 87159, "牢": 90690, "砖": 74323, "巴": 658032, "著": 297543, "崛": 39927, "mit": 3859, "跻": 11659, "缓": 278701, "慢": 434410, "##di": 41014, "劣": 71980, "垄": 30650, "2800": 7588, "7000": 20273, "鼠": 63381, "捍": 8414, "薪": 156042, "掖": 4423, "嗅": 18278, "践": 152050, "pr": 18121, "堵": 103009, "疏": 84399, "拧": 11378, "top": 36123, "糯": 25692, "腾": 235945, "狐": 127322, "饿": 45524, "##16": 40656, "★": 55498, "##20": 71589, "圳": 287190, "映": 235917, "龄": 262177, "奇": 543007, "掌": 277253, "握": 299431, "倾": 150886, "守": 349460, "吹": 99292, "跑": 461701, "氛": 106034, "▼": 200146, "肌": 252556, "袜": 25711, "cool": 3133, "##dr": 12055, "汗": 98550, "匠": 46442, "脚": 346660, "绒": 41217, "酸": 281587, "疼": 129318, "趾": 10829, "脱": 320219, "痛": 355509, "洁": 246443, "墙": 187305, "咖": 138748, "啡": 100738, "播": 536511, "show": 11496, "苔": 10588, "抵": 200194, "频": 548766, "峯": 712, "弓": 19607, "射": 315404, "弯": 89915, "矢": 11432, "铜": 100248, "锣": 13168, "靶": 11045, "旦": 197270, "拔": 127281, "##rf": 6244, "弹": 361258, "枪": 132741, "##mi": 21537, "妆": 195545, "肤": 381188, "永": 395920, "锅": 257745, "菜": 557500, "饕": 4667, "剂": 175577, "辣": 179715, "燥": 73898, "胃": 179443, "魅": 123630, "##fl": 9053, "「": 134498, "」": 134162, "蹈": 53459, "喝": 310673, "free": 6109, "##style": 907, "董": 401565, "髦": 28493, "蹦": 12775, "轨": 219457, "妮": 37778, "靓": 41745, "癖": 6272, "噢": 11010, "仪": 242563, "抽": 205835, "煮": 134535, "65": 96184, "冰": 377661, "刮": 48118, "聊": 177960, "count": 3683, "down": 3775, "##ay": 10524, "##2016": 15737, "厚": 248412, "豫": 50325, "cd": 24608, "##dd": 10921, "##z": 122889, "vs": 46439, "豆": 294342, "鄙": 8770, "杀": 310862, "糟": 42339, "睡": 331815, "父": 538938, "母": 702764, "傲": 67477, "淳": 20412, "朴": 76772, "赚": 227478, "攒": 21117, "鸟": 121242, "屎": 15192, "租": 378039, "憧": 8252, "憬": 8477, "帖": 42358, "赘": 11384, "矮": 23077, "丑": 70067, "旗": 271629, "耻": 18000, "俩": 66456, "婚": 584102, "恋": 201586, "抢": 264726, "丈": 102831, "娘": 175593, "yy": 7282, "嫉": 13309, "妒": 14834, "猥": 6253, "琐": 23016, "屌": 14380, "霍": 74263, "昌": 175704, "150": 91385, "cover": 1389, "舒": 257497, "仨": 2308, "膜": 168216, "橡": 33133, "硅": 43893, "墅": 46452, "case": 3486, "愁": 44834, "羡": 38158, "慕": 69908, "瞪": 9332, "缭": 9677, "躲": 46319, "偷": 130553, "仰": 68967, "咱": 67790, "屑": 19097, "en": 19156, "##joy": 4745, "喊": 78737, "忙": 196098, "爬": 73381, "煎": 51829, "饼": 83569, "浆": 48110, "挤": 83402, "脾": 85541, "拖": 114942, "沓": 5895, "鳄": 12788, "茁": 3556, "蹬": 7037, "裤": 150992, "兜": 24519, "掏": 30552, "乃": 82393, "唤": 45572, "1981": 7547, "1999": 25961, "陵": 82129, "笈": 4496, "锲": 2014, "救": 403947, "奔": 166298, "呐": 15611, "诗": 220161, "姆": 128367, "貌": 115640, "毁": 92155, "宫": 257261, "霁": 3059, "睹": 23968, "墟": 6720, "拆": 139555, "割": 84120, "肉": 572582, "扒": 23846, "泪": 94477, "魂": 84258, "夷": 26598, "逆": 125469, "堪": 84131, "阻": 199190, "挡": 155400, "屡": 47607, "剖": 36347, "恰": 108120, "谈": 447564, "衰": 98572, "厄": 20349, "剩": 177447, "秦": 115064, "淮": 58886, "邺": 1924, "零": 334155, "鳞": 10545, "栉": 1563, "阔": 84105, "川": 314306, "畔": 21834, "2006": 48101, "殿": 40277, "庙": 58504, "塔": 208760, "桥": 317904, "兵": 273353, "突": 672899, "2009": 71078, "冻": 106394, "巷": 57431, "宏": 174592, "衬": 66371, "阙": 3669, "廓": 23135, "灭": 109954, "迹": 197773, "岛": 421471, "濒": 10254, "聋": 11152, "锯": 11798, "碾": 13123, "肢": 42534, "竖": 24812, "2002": 29955, "搬": 96590, "尊": 205900, "唇": 68011, "齿": 69849, "缮": 6960, "律": 652182, "闭": 194516, "序": 397587, "凝": 87516, "弈": 24686, "逐": 410415, "渐": 320651, "替": 170992, "珠": 243338, "矿": 174358, "锡": 64964, "野": 296786, "钼": 3207, "铅": 27738, "硼": 3096, "硫": 27468, "慨": 33455, "赐": 19099, "绚": 15469, "稀": 101378, "鸽": 21692, "菊": 43441, "呦": 7598, "埔": 20667, "盟": 286263, "桃": 154781, "竹": 93719, "谒": 1328, "冢": 2780, "卢": 79519, "抗": 320881, "庆": 391585, "赴": 95287, "聆": 15827, "仔": 142377, "缅": 41686, "烈": 303198, "牺": 36574, "牲": 40860, "兼": 164978, "鞠": 9892, "躬": 8313, "敬": 155794, "旨": 73349, "麓": 11452, "瞻": 28539, "佟": 15371, "麟": 24501, "080": 2631, "##56": 29279, "hk": 12906, "5000": 89211, "厘": 63536, "345": 5378, "贷": 541615, "闹": 125912, "惶": 7766, "130": 37214, "men": 4639, "蒂": 86376, "厕": 53964, "妥": 68788, "壕": 6517, "敢": 213384, "##ish": 5100, "##one": 12835, "镑": 46105, "139": 21828, "塘": 65976, "溶": 47490, "鹅": 50555, "卵": 61719, "滩": 77463, "拦": 38124, "妹": 222576, "碧": 74679, "栋": 65031, "塞": 186925, "c1": 5630, "##72": 27723, "gps": 15551, "左": 566830, "170": 25118, "堆": 101558, "lv": 8722, "##ain": 7676, "louis": 2720, "04": 92824, "妻": 251927, "308": 13836, "37": 76277, "卧": 91608, "浴": 72882, "昆": 139239, "亩": 85683, "≈": 2599, "哟": 29424, "挣": 59025, "牧": 72000, "莫": 180787, "##100": 17801, "颗": 130402, "馁": 2899, "18000": 3128, "162": 13279, "125": 26019, "126": 34225, "142": 11833, "009": 4650, "277": 5041, "隅": 6617, "梯": 128509, "122": 21790, "97": 57278, "2600": 8259, "吉": 301276, "横": 169972, "m5": 4682, "cbd": 5927, "拐": 54281, "app": 140539, "赖": 118803, "垂": 88703, "孕": 234030, "尝": 173547, "曝": 151171, "属": 866568, "涵": 125151, "黏": 34300, "孵": 38260, "捆": 17218, "绑": 62577, "察": 518482, "c": 220454, "洗": 450126, "b": 270885, "羽": 69935, "翼": 88743, "跨": 221205, "嫁": 65869, "qq": 106594, "157": 11842, "##64": 19996, "##73": 24143, "pc": 37132, "05": 87888, "##71": 40304, "280": 17845, "##300": 8599, "##88": 48840, "邓": 86805, "捎": 2020, "伍": 131503, "洽": 29276, "坡": 180769, "裕": 58359, "廊": 61090, "皆": 77766, "u": 77557, "spa": 9409, "薛": 29663, "挺": 138934, "摘": 101312, "孟": 58708, "姬": 17326, "韬": 12601, "纲": 69417, "含": 561345, "儒": 32695, "佑": 18441, "浸": 68175, "诵": 27970, "悟": 75842, "储": 355485, "熏": 24296, "陶": 100611, "灸": 20076, "艾": 110447, "尿": 145057, "胰": 19028, "氧": 126799, "肾": 105048, "瘦": 183062, "疫": 124324, "蛋": 356897, "愈": 96681, "穴": 58286, "脘": 1998, "曲": 295925, "膈": 2084, "俞": 21685, "膻": 2443, "腑": 8754, "衡": 224253, "肺": 98604, "垃": 105859, "圾": 105981, "旁": 148088, "窝": 68151, "缔": 20534, "涛": 81629, "弥": 58846, "刺": 265727, "鼻": 125783, "鸭": 61182, "蹊": 6810, "跷": 8397, "炉": 100261, "箩": 2110, "遮": 63123, "阵": 240031, "灰": 145763, "尘": 99004, "污": 266623, "摞": 2124, "锈": 30776, "毒": 386567, "嘟": 13402, "囔": 1037, "浙": 162368, "葛": 50866, "仙": 115838, "雅": 293117, "胡": 264090, "谐": 73687, "祺": 20882, "63": 66432, "68": 78923, "08": 88441, "栏": 130498, "dc": 9157, "108": 22061, "@": 160914, "630": 9676, "187": 12804, "4500": 13416, "5500": 9284, "230": 15815, "##wd": 5510, "滤": 73275, "370": 14476, "185": 19632, "168": 18751, "臃": 4368, "肿": 127962, "贾": 67841, "绪": 176191, "匀": 85271, "碍": 114986, "梭": 22318, "腐": 166725, "烂": 85233, "铸": 33154, "谊": 52701, "扩": 296642, "惑": 91112, "沦": 19953, "欲": 172616, "殷": 19532, "愚": 27418, "辉": 134960, "煌": 48736, "痴": 32615, "廷": 56213, "恼": 58001, "泉": 196697, "魁": 14600, "祸": 53932, "诫": 12094, "遥": 81096, "递": 202535, "##7": 267702, "197": 4033, "186": 16361, "##69": 29527, "##63": 27513, "##62": 26962, "1890": 1902, "##27": 31041, "fan": 5335, "##cy": 7487, "##400": 10044, "沂": 20705, "ie": 14208, "蜀": 29477, "黍": 7289, "醒": 291140, "挥": 308647, "辆": 552279, "窄": 60006, "坪": 44447, "仓": 246532, "柳": 82499, "窗": 241416, "爵": 29001, "武": 483947, "勤": 136960, "罹": 8170, "灾": 180304, "辽": 104903, "钜": 14579, "逃": 158112, "援": 147628, "冒": 164350, "殡": 32708, "岸": 169626, "杜": 139939, "滨": 121841, "玫": 39409, "瑰": 41749, "42": 78717, "毅": 63943, "熙": 41891, "偶": 157442, "飙": 39126, "茫": 44561, "侣": 55431, "诚": 241656, "泄": 75045, "3000": 90752, "梨": 56159, "闸": 26163, "蟹": 76333, "傍": 22506, "陕": 86335, "酥": 26943, "妃": 28307, "灿": 31806, "吨": 192310, "疆": 112769, "渣": 42575, "纸": 257233, "绳": 46257, "浓": 184223, "郁": 103917, "棉": 79522, "番": 123906, "扛": 19323, "纺": 44310, "纷": 314522, "纱": 67930, "坯": 8970, "1500": 40452, "144": 13121, "274": 4237, "##60": 56383, "c2": 9997, "c3": 6390, "涌": 76299, "郑": 231342, "ice": 4154, "炒": 209846, "慌": 46901, "薄": 149336, "籽": 23907, "a3": 13736, "坠": 50388, "骸": 8372, "哭": 131324, "隆": 145578, "莎": 57862, "81": 47478, "cr": 32568, "##900": 6130, "卑": 28208, "3800": 8671, "尺": 129347, "115": 21308, "2400": 9825, "73": 55925, "##15": 43373, "4200": 7083, "餐": 496801, "bbc": 6428, "瑟": 26675, "艰": 89026, "宪": 33920, "顷": 15978, "陡": 16685, "峭": 9060, "瓦": 143703, "雨": 496188, "赶": 264463, "驻": 154071, "械": 130161, "59": 70904, "1988": 11212, "丧": 65829, "1990": 16162, "146": 12490, "1992": 14479, "148": 13960, "孚": 8515, "96": 60724, "1993": 14296, "1997": 19376, "扎": 159029, "麦": 162571, "135": 21849, "113": 17275, "2007": 54397, "戈": 43024, "198": 6897, "恳": 13789, "欠": 80959, "2018": 32522, "坛": 184622, "芋": 15205, "骂": 71856, "憾": 49163, "爽": 120760, "怒": 81858, "桩": 36270, "焊": 24450, "2017": 191252, "遣": 23657, "贡": 125540, "##51": 39571, "泸": 21191, "235": 11626, "182": 14944, "##888": 14449, "##04": 23413, "##07": 25215, "##86": 30062, "363": 3973, "##68": 35014, "贝": 219873, "pi": 20999, "##ge": 23169, "巾": 75502, "3p": 3307, "娃": 97394, "喽": 6691, "辟": 41709, "×": 29453, "##p": 283119, "1957": 4210, "乳": 208525, "奶": 358836, "抚": 64011, "末": 390887, "屁": 32693, "脂": 195376, "蕴": 37937, "萃": 15111, "娇": 55474, "嫩": 76104, "碱": 33358, "魔": 147783, "淘": 165301, "goo": 861, "俊": 89661, "肩": 110933, "渗": 50698, "e": 104078, "罩": 46842, "隔": 190641, "弘": 59256, "姐": 259190, "疹": 24843, "凹": 25316, "糕": 88767, "插": 123601, "姑": 109778, "w": 115538, "##jia": 11613, "俭": 18544, "嫌": 201942, "劈": 11303, "催": 77225, "拒": 141293, "逛": 51461, "泳": 77581, "烹": 37329, "饪": 20940, "屈": 60829, "俨": 10055, "呗": 13575, "尴": 47349, "尬": 47502, "腻": 77634, "陪": 152066, "寂": 37101, "寞": 23685, "彼": 92341, "绊": 10975, "蓄": 76949, "葩": 22289, "固": 321337, "侍": 13044, "177": 13876, "52": 90033, "衢": 5563, "311": 6091, "1080": 4348, "95": 92057, "236": 6937, "61": 59130, "肽": 5278, "318": 8685, "谋": 117972, "霜": 74995, "峻": 31580, "41": 60758, "442": 4105, "43": 83460, "82": 61860, "374": 4099, "515": 3733, "490": 18514, "榨": 19346, "稿": 142872, "姜": 124622, "磊": 45732, "幻": 118342, "1948": 3951, "碟": 24535, "##sc": 13775, "or": 28002, "闪": 108164, "缘": 194296, "幽": 70531, "讽": 18568, "挽": 41542, "胳": 10822, "膊": 11539, "暗": 180232, "漠": 46990, "哀": 32260, "悼": 11918, "葬": 65906, "讳": 18750, "逝": 43986, "诟": 8316, "碑": 89008, "祭": 71403, "祀": 18298, "惧": 54588, "孝": 61238, "畏": 37673, "崇": 76717, "抹": 73666, "忽": 138049, "姿": 115720, "梓": 14533, "韵": 54181, "隧": 34645, "袁": 68550, "unt": 1297, "##led": 5750, "甸": 40509, "隶": 22183, "傣": 2989, "昂": 71146, "舞": 286406, "瑙": 8948, "陲": 1602, "涯": 57526, "盐": 175132, "屯": 26014, "84": 53940, "秋": 361571, "烧": 269866, "烤": 123131, "摊": 80824, "粑": 11279, "拌": 72062, "筒": 37701, "荷": 127697, "鸡": 322897, "虫": 96717, "宴": 78416, "绘": 108608, "敲": 57021, "奠": 37884, "摹": 5454, "骤": 67663, "①": 48947, "②": 47599, "③": 32000, "冬": 282640, "cg": 5700, "胸": 170733, "腹": 152432, "膝": 55743, "猪": 210742, "叔": 77031, "##live": 1494, "逾": 67771, "games": 2012, "##vice": 2869, "##desk": 633, "##top": 3711, "##go": 21917, "债": 671071, "480": 9582, "披": 179897, "at": 38961, "auto": 12533, "htc": 15510, "鼾": 2885, "颈": 101212, "椎": 42414, "疲": 100106, "##lv": 13249, "刁": 8139, "蛮": 42660, "汐": 6609, "柠": 31594, "昊": 22757, "霓": 5130, "亭": 53164, "裸": 52551, "hold": 8662, "蛾": 3719, "扑": 64823, "绎": 43890, "惟": 20315, "肖": 105080, "扁": 28309, "鹊": 5900, "姓": 193139, "bad": 2521, "鑫": 63952, "320": 14175, "180": 45664, "夹": 86286, "燃": 202139, "ct": 17168, "◆": 43495, "摔": 43178, "壳": 93758, "蚀": 26160, "寿": 152581, "芯": 91554, "ah": 7168, "##lo": 22052, "##xi": 28372, "index": 4716, "php": 5359, "##gb": 7380, "##oud": 1788, "##ian": 11897, "##ton": 10379, "428": 4647, "html": 24923, "351": 3938, "##34": 22052, "##18": 51360, "189": 7696, "##36": 27610, "捐": 95938, "乓": 17946, "9000": 11225, "履": 105240, "煜": 6928, "骏": 34535, "﹝": 1105, "2005": 44220, "﹞": 1039, "172": 12084, "甩": 32949, "帐": 43523, "z": 97087, "驭": 22768, "臀": 29735, "驼": 17044, "id": 109991, "y": 59568, "##q": 74406, "##bb": 8873, "##001": 17998, "##dt": 5783, "##xx": 5196, "##qq": 8065, "mr": 11176, "沥": 53085, "opec": 50219, "##ti": 36203, "44": 79351, "macd": 49624, "kd": 33099, "ma": 66146, "##02": 39281, "攥": 2641, "剪": 80649, "染": 331955, "奢": 74246, "慵": 7308, "懒": 61400, "诺": 287160, "俘": 12643, "##48": 24366, "##25": 34269, "ps": 46883, "愉": 49944, "旌": 2445, "徒": 107029, "凉": 169350, "溢": 67573, "粼": 3357, "碗": 99714, "卤": 23628, "豌": 6536, "栗": 28830, "诱": 96315, "柚": 23327, "榴": 25973, "橘": 41963, "莹": 33623, "柑": 9583, "沁": 17486, "绵": 67137, "遵": 121130, "猕": 13233, "imax": 3364, "撼": 38619, "篷": 22412, "粮": 109567, "巍": 15717, "螺": 56057, "槐": 10188, "阡": 2549, "奏": 109680, "唐": 214086, "寺": 98651, "焚": 18493, "跪": 24011, "祈": 20053, "遂": 31285, "钓": 63486, "鹿": 57578, "怡": 45355, "鲢": 1736, "鲤": 10173, "啃": 12273, "啤": 44156, "闷": 50297, "煲": 23594, "汤": 228754, "莲": 83689, "藕": 16630, "缠": 39747, "巅": 28031, "潺": 6212, "彰": 54907, "肚": 82250, "滋": 104393, "熬": 62453, "杏": 49645, "帘": 38732, "棠": 14424, "惫": 16874, "剁": 16692, "棵": 30282, "馨": 74919, "匆": 38684, "##body": 1639, "丨": 46214, "##81": 32390, "##38": 30250, "薅": 1029, "砸": 54185, "wan": 2955, "act": 8567, "##gg": 10065, "##bre": 2213, "##ak": 5692, "浇": 28340, "https": 7517, "web": 13118, "##800": 10946, "cp": 18138, "member": 959, "cache": 1042, "shtml": 3745, "拭": 23623, "hd": 8700, "mc": 12232, "exchange": 1131, "裂": 108068, "姻": 117373, "悔": 59820, "驳": 25959, "霆": 38716, "撒": 72937, "炽": 5619, "酬": 80907, "趙": 509, "傅": 81219, "##st": 46549, "##21": 47450, "##30": 55413, "凶": 65573, "悠": 76612, "辖": 73207, "247": 5796, "208": 9012, "178": 12903, "刊": 95743, "qa": 2266, "hr": 15583, "廖": 24719, "渔": 61161, "蓬": 42746, "勃": 59895, "浩": 89422, "pose": 2968, "ic": 20076, "ha": 38560, "##les": 6483, "tony": 2716, "ge": 26349, "桡": 807, "肱": 1987, "腋": 5730, "腕": 52652, "allen": 950, "抬": 70143, "臂": 66794, "拇": 21014, "搏": 43795, "嘱": 22619, "拳": 86566, "苍": 48352, "＜": 2912, "##5s": 2553, "##～7": 2757, "##～1": 13331, "＞": 4530, "氟": 9285, "乙": 69269, "烯": 27612, "20g": 3874, "卷": 188129, "圆": 235933, "dom": 3094, "肝": 148308, "④": 17799, "##°": 14985, "腱": 5480, "茎": 12463, "5cm": 3528, "⑤": 10255, "⑥": 5930, "⑦": 3610, "200mm": 861, "##hg": 2685, "⑧": 2286, "粘": 77030, "min": 9336, "栓": 20796, "##all": 7332, "##en": 38526, "菌": 144604, "梢": 7739, "⑨": 1551, "chen": 4352, "##qi": 12076, "org": 10242, "cn": 79591, "##01": 24961, "泣": 15284, "９": 7570, "澜": 29644, "魄": 23100, "赓": 1611, "仆": 10037, "剿": 6772, "芒": 49356, "娥": 7810, "燎": 4483, "荧": 22347, "砥": 4729, "砺": 7430, "暨": 49689, "抒": 12138, "颂": 20481, "慰": 63141, "誓": 27861, "帜": 15007, "抄": 47458, "萍": 34650, "黯": 8538, "赋": 70072, "朽": 9097, "&": 143897, "萎": 30651, "剔": 28526, "侯": 48340, "棚": 53005, "稻": 53352, "暑": 79869, "440": 9853, "浮": 134533, "躁": 44127, "褪": 12331, "衫": 71962, "尸": 58125, "粒": 94315, "腰": 160801, "裙": 120487, "4000": 66032, "纠": 122842, "挨": 24821, "浔": 2529, "昏": 42078, "171": 10219, "漏": 126252, "碳": 80757, "浑": 40720, "浊": 13352, "忍": 133591, "冉": 13171, "谭": 32839, "晕": 55827, "囱": 3421, "汰": 48933, "役": 81624, "扇": 46196, "瑜": 37744, "伽": 31474, "→": 67529, "庐": 19609, "##km": 23179, "h": 115389, "feel": 5669, "宛": 17322, "蹄": 20339, "椰": 19019, "闽": 29351, "炖": 29621, "罢": 43903, "糊": 80159, "弄": 95754, "皱": 33078, "眉": 89058, "咬": 55924, "酱": 112565, "舅": 13865, "哄": 22187, "筷": 20389, "葱": 96926, "蒜": 64122, "椒": 121038, "焯": 9763, "烩": 4137, "羹": 11161, "肴": 14760, "祟": 3751, "厨": 127456, "馋": 7811, "枚": 58590, "羞": 33706, "憋": 14310, "晰": 90131, "厌": 54638, "丹": 171789, "am": 31490, "##a": 189897, "##zi": 16597, "##tv": 4951, "##200": 12524, "舟": 80412, "踊": 7529, "懵": 17320, "苗": 112309, "贼": 27379, "肃": 86419, "浏": 39975, "驿": 13505, "溪": 99066, "攀": 64563, "洼": 16558, "1912": 2753, "韭": 14030, "藩": 10392, "倔": 5829, "岔": 8201, "哑": 20285, "厢": 64113, "溜": 28313, "翩": 11546, "诘": 1178, "傻": 56271, "衷": 48711, "褒": 6631, "姒": 525, "烽": 6204, "吻": 43359, "搂": 6662, "妄": 17058, "乍": 14160, "陋": 19524, "怵": 4736, "诡": 49900, "玲": 72932, "噩": 12343, "肇": 28414, "辜": 19228, "赵": 236898, "笛": 13723, "橱": 21628, "仲": 56879, "盼": 35070, "吕": 51760, "145": 15011, "109": 18003, "苑": 36416, "竣": 16612, "滚": 96637, "砂": 63996, "攻": 327291, "153": 13075, "169": 11688, "511": 3894, "菖": 980, "蒲": 19983, "腊": 54215, "皇": 210076, "禄": 22864, "馗": 921, "煞": 22675, "朵": 80565, "掩": 48807, "鞍": 15876, "韧": 29921, "旋": 88785, "＋": 23292, "2025": 14000, "坎": 33816, "迈": 106771, "蚂": 27189, "蚁": 31867, "坑": 69055, "颤": 16486, "楷": 13857, "p": 71506, "apple": 27939, "watch": 17341, "##watch": 5024, "wear": 2007, "pptv": 3008, "框": 93359, "here": 3015, "逊": 74531, "chrome": 2958, "macbook": 12492, "safari": 890, "ver": 10212, "windows": 21477, "xbox": 4235, "music": 3197, "video": 1779, "炮": 78956, "轰": 56879, "惹": 36555, "狠": 52125, "恤": 23914, "舆": 43712, "叮": 19304, "丢": 104462, "饮": 373098, "捣": 20116, "instagram": 6129, "##▼": 32386, "##pu": 4901, "##la": 34275, "##cc": 15604, "##ino": 4761, "俏": 25899, "淋": 71830, "冀": 38360, "渤": 16203, "彤": 22232, "膀": 38370, "杆": 178201, "say": 4677, "no": 70992, "辐": 47774, "昕": 17249, "恺": 12674, "潼": 6570, "恩": 194922, "led": 51834, "匙": 71578, "挪": 35535, "笼": 45112, "瞄": 18737, "劲": 155292, "缀": 22926, "鞋": 216598, "靳": 5347, "莅": 5846, "蒋": 65894, "稼": 5697, "伐": 59041, "tb": 2871, "咏": 16565, "曰": 28627, "桓": 9528, "淫": 20875, "贱": 17537, "劝": 62953, "慷": 8017, "矣": 14849, "砍": 55284, "暇": 16673, "藐": 1745, "312": 7509, "瞒": 17297, "敞": 34127, "扉": 5456, "宰": 28074, "昼": 11511, "寝": 13730, "泗": 6534, "滂": 956, "沱": 5310, "313": 5680, "扼": 9160, "谛": 6616, "314": 7410, "怨": 81422, "朱": 165004, "熹": 4113, "辄": 10812, "御": 82728, "卒": 14042, "焉": 8890, "纣": 2524, "叩": 4504, "谏": 3386, "爰": 477, "臣": 51015, "弑": 1018, "粟": 7441, "薇": 54515, "兮": 16844, "虞": 11943, "嗟": 891, "315": 8749, "奉": 86226, "316": 6284, "昭": 26976, "揖": 1014, "巫": 21164, "孰": 9143, "苟": 11773, "袒": 2771, "娶": 27494, "钦": 18676, "襄": 15891, "庶": 3788, "谥": 1958, "317": 4366, "猛": 105210, "恭": 27801, "谄": 813, "祷": 8104, "祇": 1059, "319": 5283, "诲": 2843, "倦": 20839, "仇": 38297, "谦": 35585, "睦": 11893, "雍": 16974, "勾": 53863, "押": 108529, "022": 4806, "124": 17634, "000": 191163, "256": 10853, "326": 5649, "叉": 122825, "罚": 230030, "弊": 35572, "寸": 180776, "136": 19741, "##600": 14655, "152": 15637, "##013": 3658, "231": 6525, "##57": 23396, "133": 22087, "##83": 25221, "##78": 26725, "##03": 31260, "kai": 1951, "##hua": 8252, "##ht": 5281, "##66": 50579, "##77": 34463, "party": 6832, "##kg": 11877, "##yu": 12192, "333": 9156, "1111": 3748, "曹": 78925, "91": 54995, "寓": 65355, "128": 19817, "舰": 141121, "802": 4842, "bp": 5930, "b6": 2660, "fm": 10429, "舱": 48570, "缆": 24264, "##80": 51211, "##fa": 23814, "##ns": 22045, "##me": 27632, "##if": 13660, "刀": 179869, "剃": 9075, "刃": 22575, "畴": 17069, "梳": 52731, "翘": 23825, "弧": 22900, "颞": 1014, "鬓": 3342, "轧": 9169, "挠": 12445, "020": 9172, "890": 7746, "##31": 42711, "##95": 32056, "shop": 3279, "##59": 27353, "##700": 6161, "##ob": 16077, "525": 5067, "##97": 24065, "■": 112261, "晖": 27561, "坷": 9737, "洒": 49731, "寒": 173686, "虐": 31857, "拮": 3402, "邱": 27280, "魏": 59821, "逢": 72265, "2003": 34632, "彬": 30088, "潭": 42437, "##35": 40303, "##74": 20485, "##91": 33232, "##55": 39327, "柱": 119481, "##120": 7112, "拢": 22509, "bo": 34955, "##ll": 21322, "364": 5013, "366": 4954, "373": 4228, "375": 7191, "369": 5507, "365": 13553, "癌": 203175, "筱": 4673, "倩": 19088, "瘤": 87128, "咎": 5912, "咋": 24400, "植": 254945, "泻": 34666, "b3": 2995, "霉": 41385, "炸": 161984, "腌": 24510, "硝": 23226, "贮": 8718, "肪": 89886, "苯": 16710, "烘": 27703, "焙": 13642, "丙": 35630, "酰": 6712, "胺": 21667, "蔬": 99315, "涤": 17176, "醇": 56212, "160": 37690, "雇": 38300, "1200": 30462, "1400": 13417, "165": 15338, "175": 18084, "⑴": 2096, "⑵": 2223, "⑶": 1202, "6000": 48667, "癫": 10850, "痫": 7791, "滞": 56169, "20000": 8826, "8000": 30091, "狱": 51580, "##sm": 8235, "##k": 95692, "虾": 79226, "拗": 3933, "盆": 86041, "酶": 21749, "隙": 32454, "虹": 62451, "伫": 2041, "渴": 57940, "绣": 41319, "熠": 9139, "149": 13512, "##37": 24238, "224": 6982, "##92": 28994, "磁": 65269, "143": 11699, "ag": 8861, "↓↓": 8489, "368": 6387, "js": 7473, "net": 12368, "僵": 39026, "娆": 3431, "嬉": 10525, "炎": 181280, "j": 91825, "46": 84443, "厮": 7703, "129": 15282, "137": 19401, "酝": 11597, "酿": 46817, "240": 18228, "147": 14670, "191": 4262, "翡": 51029, "翠": 83498, "堤": 24056, "睐": 39154, "123": 25885, "468": 4125, "璧": 9449, "朦": 6726, "胧": 6139, "荒": 65722, "沧": 35985, "桑": 74189, "悱": 494, "恻": 1206, "蠡": 2748, "埋": 60830, "凄": 9597, "兽": 59521, "闺": 42281, "嬴": 1690, "躯": 12159, "悲": 106621, "纤": 87182, "撕": 38858, "纬": 19549, "拾": 45477, "栖": 29117, "靖": 28056, "眸": 9190, "恨": 60704, "虬": 862, "髯": 948, "霏": 2766, "昔": 26800, "拂": 8335, "酋": 8788, "帆": 59762, "亨": 22689, "枣": 52307, "##ba": 30809, "mall": 3125, "屿": 22535, "迦": 8948, "1971": 4957, "爺": 131, "貨": 354, "ga": 29446, "##ller": 2724, "##ies": 7995, "##tte": 3656, "萨": 185282, "卜": 80836, "赫": 72831, "t3": 4441, "曼": 150985, "亞": 655, "沃": 111299, "潢": 6666, "et": 9143, "ya": 11029, "f1": 12773, "water": 3435, "world": 7938, "趴": 20735, "speed": 1938, "##ma": 32341, "##llo": 2732, "丛": 34716, "4d": 2260, "窥": 12429, "．": 190864, "吊": 71549, "裹": 51139, "咸": 47103, "棕": 31732, "榈": 7194, "［": 9973, "##lan": 10460, "##tis": 2486, "##lm": 7017, "］": 9927, "茱": 2245, "瞩": 21364, "al": 31999, "##ik": 3539, "emi": 1774, "##tes": 3915, "##now": 2520, "##ka": 17347, "##ndy": 1812, "俯": 23400, "瞰": 8800, "帝": 189962, "223": 7779, "蹒": 2562, "跚": 2567, "饲": 34123, "乞": 15280, "邋": 3252, "遢": 5182, "芙": 20887, "沮": 8995, "蔼": 3808, "鹃": 9175, "瘠": 2329, "桦": 7938, "笃": 7128, "岭": 86151, "1600": 19780, "2300": 9835, "皑": 4523, "枝": 70988, "蕙": 3337, "璇": 7764, "懿": 6877, "77": 53570, "轩": 43590, "309": 6274, "cpi": 20430, "ppi": 9350, "##47": 18818, "278": 6054, "aaa": 6844, "190": 12896, "323": 6054, "##aa": 10510, "001": 11119, "007": 6596, "aa": 15911, "005": 4503, "2a": 3890, "021": 12116, "025": 4332, "003": 5546, "011": 4555, "mt": 15546, "皖": 10325, "711": 2442, "1b": 2538, "1a": 2001, "##23": 39599, "scp": 1886, "74": 52149, "##007": 5221, "於": 11746, "曦": 17010, "蕾": 54785, "肥": 297662, "哒": 27480, "镖": 7142, "痨": 826, "禀": 5150, "醋": 53422, "痒": 31293, "蔚": 21838, "498": 4511, "眠": 131171, "钥": 47851, "穹": 6300, "垦": 7901, "hit": 1745, "耍": 45619, "425": 5923, "1949": 8362, "132": 22590, "巩": 36397, "纂": 2528, "瘾": 32522, "痹": 6817, "唉": 6538, "诈": 95940, "惕": 32572, "p2p": 69798, "蔓": 23533, "枕": 37975, "痧": 2635, "胛": 2161, "腺": 80399, "亢": 10390, "胱": 10056, "##～8": 4120, "胀": 89797, "凳": 18021, "懈": 24755, "冕": 14988, "##fc": 8013, "##17": 42850, "蝇": 11069, "狄": 8717, "##tr": 15553, "##ious": 1945, "##jo": 7915, "##hn": 3092, "##son": 10120, "##cd": 6216, "##ona": 3800, "##ron": 14117, "##ood": 3734, "##ley": 5426, "樱": 50940, "斡": 1725, "111": 16971, "玄": 40469, "祛": 42677, "卦": 31165, "氐": 453, "箕": 2573, "胁": 62628, "惩": 49286, "奎": 14707, "昴": 411, "凰": 40463, "蛇": 58727, "冥": 14951, "诣": 4427, "乒": 24199, "壤": 35982, "烷": 6109, "逸": 70398, "削": 46146, "悍": 20941, "爪": 17675, "哎": 15627, "咳": 51547, "稚": 14210, "g6": 3760, "刨": 6938, "##bar": 4115, "毂": 15509, "锏": 4149, "##rc": 13295, "溅": 7942, "杠": 94733, "喉": 34190, "摧": 17639, "辙": 10117, "泞": 3560, "撵": 1246, "lz": 2154, "澡": 40698, "sm": 14166, "奸": 23418, "凌": 143101, "喧": 17866, "哗": 13586, "胚": 14547, "噙": 635, "踢": 49794, "衅": 8815, "趁": 46966, "愣": 8930, "吼": 14491, "拙": 10185, "粹": 36241, "髓": 29952, "惨": 66649, "鹈": 5039, "鹕": 5003, "june": 459, "win": 6615, "doc": 6601, "mark": 8407, "pmi": 10711, "sp": 31358, "gold": 4227, "share": 2708, "han": 11000, "##sen": 4594, "mk": 5278, "##mp": 14331, "jason": 1924, "##ris": 7209, "##ola": 2434, "盎": 30344, "city": 4619, "fa": 33933, "##wa": 12986, "ra": 30120, "##za": 14195, "##da": 33334, "贬": 85326, "etf": 17170, "赁": 78346, "芹": 19229, "锤": 41376, "##line": 10082, "骁": 21410, "820": 8270, "1080p": 8309, "3g": 15856, "249": 7731, "2k": 6663, "4gb": 6866, "抨": 3780, "smart": 11267, "##isa": 5249, "os": 13272, "v3": 3826, "蜡": 40352, "鞭": 18821, "泽": 178484, "扳": 16804, "110": 52975, "1984": 10285, "寥": 16043, "畸": 18503, "穆": 51064, "猎": 51795, "勿": 43728, "嘲": 21617, "焕": 24867, "棘": 11912, "650": 9608, "737": 4022, "晟": 10060, "嚣": 19929, "阐": 27340, "1966": 4767, "瀚": 11988, "闫": 13833, "bank": 5180, "##uan": 18916, "龚": 14931, "骄": 36954, "斧": 13438, "103": 24264, "105": 27897, "佐": 34130, "磺": 5838, "喀": 21256, "芬": 53561, "钝": 8853, "缚": 15086, "嘈": 4454, "殖": 86582, "畜": 29391, "肓": 919, "骆": 12916, "弦": 22226, "沈": 153397, "趟": 27700, "碌": 31086, "簿": 14048, "bob": 5021, "##bi": 13962, "brown": 2196, "##lc": 7500, "##ana": 4958, "sep": 992, "瑕": 19991, "urban": 1154, "dec": 5698, "marc": 4188, "mac": 12933, "疵": 11031, "薰": 7730, "gi": 14488, "##or": 29648, "##gio": 1606, "armani": 1277, "bella": 1613, "##don": 3730, "##na": 30446, "bb": 11891, "burberry": 2804, "##ea": 15925, "舶": 21442, "艘": 35956, "徽": 115600, "##89": 29632, "卸": 46082, "炳": 13903, "1024": 2628, "匾": 6078, "墨": 132315, "##min": 7848, "##2c": 3216, "##～3": 6791, "196": 4661, "##～": 18076, "##29": 30174, "3kg": 367, "cm": 12672, "橙": 40202, "镀": 32492, "镍": 10671, "铝": 78059, "沸": 38285, "氯": 15568, "～5": 1180, "##oh": 4330, "55": 114493, "##～6": 5532, "锌": 24507, "##76": 26750, "alice": 920, "##log": 5443, "枫": 32586, "坞": 29319, "串": 92799, "翁": 31079, "tf": 12647, "渊": 24780, "垮": 15403, "##gp": 4283, "cdn": 2799, "453": 3087, "8g": 3475, "ddos": 2215, "io": 5493, "吞": 44039, "##×": 54893, "uc": 9244, "fx": 9510, "##cm": 29385, "ad": 26236, "晃": 28426, "挫": 46570, "760": 5508, "chris": 5387, "ted": 2742, "##der": 7690, "rs": 15364, "176": 10339, "205": 13469, "488": 5301, "is": 52757, "866": 2879, "119": 26148, "狮": 62015, "敦": 75618, "阜": 17935, "讶": 20404, "侃": 29217, "俑": 5340, "恪": 8521, "赔": 164213, "删": 53738, "堰": 13580, "幢": 13864, "灌": 46153, "媛": 21931, "俪": 13344, "angelababy": 10495, "郡": 19477, "401": 5423, "399": 7715, "躺": 54653, "钉": 33556, "劫": 51461, "忱": 4130, "烁": 10077, "盯": 33971, "秩": 56242, "踩": 58070, "匪": 21460, "1980": 13722, "娓": 5768, "壶": 57304, "秃": 8218, "菓": 492, "枯": 33003, "碣": 1781, "峪": 11035, "岫": 1724, "岩": 100032, "峦": 5925, "嶂": 2236, "澈": 15994, "茂": 50441, "翎": 2944, "蔽": 29508, "佬": 22065, "绸": 42059, "缪": 8868, "lan": 7270, "##xy": 4354, "##2014": 5957, "炙": 11471, "豹": 33799, "颠": 56355, "985": 8298, "211": 15907, "鸣": 73675, "home": 11279, "氪": 2545, "佼": 14740, "##hu": 17914, "pk": 17653, "霾": 45632, "霞": 55676, "岐": 7357, "芮": 4870, "拴": 4152, "驸": 850, "贺": 51492, "擞": 1731, "蚊": 27325, "奕": 24804, "衔": 49455, "塌": 40440, "給": 935, "亟": 13024, "deep": 3433, "##mu": 8986, "##nity": 1402, "service": 3030, "匿": 16427, "gif": 5519, "flash": 3411, "铃": 45365, "朔": 11157, "槽": 74597, "倪": 26670, "怜": 27077, "赌": 74122, "姗": 15495, "xi": 21622, "##uo": 12891, "cad": 4437, "re": 73779, "##vi": 26209, "搅": 50486, "##ty": 12882, "##hr": 10699, "蜂": 86964, "rq": 2922, "##fi": 29714, "酚": 10072, "梗": 24903, "龋": 3947, "斑": 108265, "鞣": 3431, "咽": 47420, "痢": 3696, "嘌": 2494, "呤": 2717, "氏": 98936, "350": 25963, "vc": 13930, "稠": 15927, "敛": 21036, "窃": 51896, "2cm": 1290, "曙": 12818, "酵": 43033, "渍": 18140, "琉": 9087, "璃": 117358, "涧": 5822, "沛": 21556, "栽": 30334, "崖": 33235, "缝": 74377, "咚": 9596, "2001": 26932, "湛": 25670, "壑": 4040, "砾": 2616, "钾": 18513, "硒": 10375, "槲": 400, "泌": 63240, "酩": 1011, "酊": 824, "柏": 83788, "臻": 13519, "馥": 3974, "寐": 5828, "涩": 28670, "##nn": 7774, "6p": 3746, "##pm": 6603, "骼": 16387, "萝": 86265, "酮": 15096, "苷": 4780, "妊": 20044, "娠": 19515, "｜": 39579, "##45": 35304, "##09": 24413, "##nch": 4013, "##a5": 1924, "wei": 9182, "samsung": 1899, "ir": 9624, "##is": 25718, "##in": 42223, "ho": 22009, "##yi": 10914, "##pro": 9348, "##ce": 31863, "ai": 25344, "tv": 18375, "##oc": 14815, "pm1": 3123, "醛": 23083, "噪": 41610, "new": 19303, "##over": 1656, "458": 4295, "gb": 10305, "1880": 2368, "pm2": 13321, "e7": 623, "眯": 5399, "2004": 37555, "丸": 42915, "醉": 80450, "沼": 7742, "侮": 8980, "辱": 31389, "揣": 14350, "阮": 18486, "娜": 99518, "挟": 7262, "唾": 10316, "are": 18309, "er": 8276, "妍": 26525, "觑": 8365, "帼": 3466, "莽": 9370, "麒": 13678, "潇": 24626, "漕": 3082, "泾": 8494, "fi": 36510, "tech": 7426, "bit": 4586, "##se": 33270, "idc": 4762, "篡": 7008, "溯": 32160, "喆": 8037, "邳": 1777, "nbsp": 112277, "勋": 16962, "敕": 1398, "as": 37845, "##bo": 20201, "##baby": 1373, "槟": 11347, "##boy": 5867, "脖": 29316, "戛": 6707, "昶": 1478, "汾": 12571, "茵": 14518, "1972": 4666, "1979": 7257, "耕": 55583, "耘": 7144, "1978": 8044, "##㎡": 20516, "歇": 35723, "㎡": 20367, "67": 67390, "灏": 3418, "02": 54527, "3200": 8572, "3300": 7859, "335": 6880, "328": 7831, "330": 12453, "憩": 5643, "鸳": 5743, "鸯": 5502, "瑄": 2965, "狈": 2916, "舔": 8540, "舐": 1219, "愤": 43243, "悯": 3670, "忏": 5532, "窒": 10061, "撇": 10214, "媲": 9535, "邃": 6247, "漆": 64388, "歹": 9454, "捂": 16148, "002": 50243, "贪": 75232, "睁": 19297, "嘻": 11147, "漱": 12254, "mm": 49878, "嗯": 16042, "嫂": 19918, "侄": 9370, "昧": 16722, "庚": 21182, "婉": 25337, "诶": 2602, "耽": 16138, "搁": 15607, "捡": 34777, "姨": 46526, "哆": 6524, "嗦": 5902, "捺": 3547, "恍": 11929, "惚": 4794, "淇": 21487, "荏": 1460, "苒": 1636, "戚": 37947, "蜚": 2381, "叛": 31085, "喘": 26813, "诧": 4826, "勉": 33131, "004": 4483, "腼": 2635, "腆": 2823, "讷": 2698, "毡": 2913, "钞": 22989, "蠢": 21855, "崴": 2187, "脊": 33602, "抿": 2143, "翌": 2124, "黠": 707, "伺": 10764, "偎": 3189, "驴": 25009, "僻": 11164, "呛": 8077, "斩": 32136, "淑": 22654, "006": 4826, "柄": 19468, "砰": 3270, "倚": 10649, "勺": 39488, "揉": 28633, "怔": 1576, "钰": 10876, "卿": 22515, "432": 4966, "430": 11645, "427": 3766, "435": 4056, "433": 4222, "豁": 18153, "isis": 2658, "470": 9243, "420": 8090, "eia": 50694, "澎": 18623, "湃": 16963, "852": 3563, "1908": 1650, "颁": 82241, "帚": 2806, "瓣": 33772, "葵": 19498, "缇": 5048, "昵": 8180, "怯": 7729, "392": 3226, "332": 5925, "琦": 19565, "滥": 32456, "饶": 21340, "570": 10062, "婷": 44298, "601": 19680, "扔": 42984, "啥": 89695, "厥": 8562, "腥": 18216, "嗓": 12801, "呕": 23558, "捏": 27647, "婧": 9078, "a2": 5509, "##168": 18363, "a1": 10260, "af": 7644, "410": 11359, "f5": 1324, "210": 14956, "iso": 11090, "1800": 14695, "f3": 3162, "ap": 13448, "550": 10588, "340": 8803, "x1": 8134, "f4": 3285, "1250": 7495, "蒸": 88183, "010": 20432, "536": 3123, "##017": 2684, "jobs": 1165, "qs": 3573, "##ie": 17916, "##du": 16220, "窦": 15385, "吆": 4501, "竿": 16092, "蛊": 4191, "蜗": 13212, "稔": 1127, "湄": 11619, "漓": 19296, "唬": 5165, "158": 17802, "##jun": 2717, "##ta": 34108, "##zz": 9538, "闯": 46991, "撸": 7379, "佯": 1885, "诃": 3529, "郊": 44824, "闵": 11675, "670": 5977, "溉": 8024, "芦": 39850, "苇": 6384, "蛳": 3275, "藻": 14859, "岚": 12515, "pet": 4606, "pin": 4767, "203": 10093, "钯": 1560, "770": 4734, "520": 11968, "舌": 61666, "##co": 31665, "##news": 6733, "kl": 3829, "##ein": 3145, "242": 6054, "540": 9072, "3400": 5522, "rt": 3862, "international": 4889, "metal": 1038, "钛": 16016, "禽": 23585, "殃": 4554, "hiv": 2230, "##ds": 12274, "ｎ": 677, "ａ": 5797, "##１": 17685, "##ｃ": 1888, "３０": 3657, "疱": 6145, "６": 10916, "痘": 69904, "eb": 9852, "ｃ": 3363, "／": 29244, "孢": 5151, "凯": 153744, "咀": 10702, "嚼": 22763, "戒": 91929, "√": 10124, "015": 4466, "167": 10002, "blue": 7044, "##star": 3287, "adi": 919, "##sse": 4384, "nu": 11874, "##ition": 3264, "##group": 1507, "limited": 2532, "93": 59181, "302": 8512, "880": 9433, "＝": 12046, "341": 3735, "155": 19514, "156": 14620, "102": 22067, "沣": 3803, "琛": 5792, "５０": 2586, "miller": 723, "may": 7046, "hi": 22183, "##ric": 9231, "##hs": 5789, "charlie": 729, "##yer": 1892, "stone": 1625, "link": 2746, "321": 5234, "##im": 10706, "ii": 11530, "ing": 4375, "611": 3735, "埠": 13239, "422": 4543, "what": 11565, "挎": 4302, "1280": 5596, "q": 90223, "##ual": 5363, "##ified": 1094, "##est": 6013, "ins": 11789, "##tu": 11407, "##tional": 1918, "##ves": 8533, "##tors": 2075, "僚": 6937, "288": 7999, "465": 4403, "崑": 515, "5g": 17396, "sd": 19628, "1937": 4678, "1955": 4895, "1989": 10481, "1983": 8072, "××": 4018, "佰": 6820, "1953": 4030, "iphone": 65943, "涓": 4029, "##13": 41264, "##53": 24775, "##67": 28934, "high": 11919, "郝": 19136, "禾": 17514, "ji": 20711, "##rix": 955, "沾": 33700, "茅": 38788, "265": 9184, "257": 6038, "419": 4077, "503": 4215, "睫": 20522, "3500": 17642, "4600": 5502, "173": 10379, "帷": 19185, "erp": 4677, "##ky": 3290, "##hi": 36062, "ppp": 48564, "##46": 23694, "胶": 143693, "##87": 24998, "mems": 1350, "绽": 20443, "袂": 5624, "kim": 2224, "south": 2509, "korea": 884, "cs": 21859, "edu": 4874, "##eting": 1411, "##id": 16151, "耄": 1275, "耋": 1198, "旭": 41792, "懦": 5284, "宵": 17514, "琢": 18703, "歪": 23992, "捅": 9035, "拎": 12903, "舀": 4586, "逍": 10258, "锄": 3436, "谴": 11537, "拱": 18527, "噬": 8618, "溺": 19132, "纭": 2891, "攫": 1795, "奘": 2749, "贞": 19948, "梵": 12783, "隍": 2283, "麽": 2978, "谶": 757, "灞": 2779, "砌": 12753, "1927": 3196, "韶": 12973, "饺": 19304, "馄": 6345, "饨": 6263, "饵": 17809, "偃": 2086, "柿": 34852, "164": 10830, "烙": 9580, "饥": 23622, "灶": 24104, "1935": 5317, "璋": 7001, "1930": 3586, "寇": 8329, "遐": 6264, "邈": 1091, "葫": 16323, "661": 2616, "羔": 3879, "亥": 16875, "2200": 9688, "雁": 27167, "1952": 4086, "##ai": 14408, "an": 36604, "##ima": 5856, "##ni": 18904, "dj": 6472, "##han": 9397, "taylor": 1998, "swift": 2021, "##ven": 7703, "##ture": 2847, "club": 5529, "head": 2767, "##nter": 1351, "hard": 3485, "alan": 1103, "walker": 649, "##ded": 1773, "##tone": 1437, "##ress": 3650, "##ive": 13937, "ultra": 2390, "el": 18400, "##ect": 7651, "jun": 2320, "##gle": 3121, "瞳": 8577, "session": 952, "stage": 823, "##cord": 3036, "youtube": 5531, "##r3": 2360, "##head": 944, "##tom": 2521, "##my": 7704, "##vin": 4033, "##tro": 5348, "##ust": 5091, "die": 4179, "##ei": 10343, "##ath": 2594, "carol": 1513, "##ina": 7677, "williams": 1293, "##ur": 26363, "##lie": 6527, "##ama": 3348, "##ach": 4945, "##ace": 3756, "##pan": 3736, "##nce": 9473, "##rr": 14987, "##ing": 76673, "bl": 17036, "##ow": 13531, "fe": 20757, "##ver": 13451, "##cky": 1023, "joe": 2492, "oct": 1743, "coc": 2056, "##tail": 2575, "mini": 19356, "time": 12964, "pm": 5359, "##cation": 1724, "裱": 4148, "∩": 8591, "2500": 22132, "诀": 35530, "ve": 14887, "##sp": 20134, "淼": 5301, "啼": 7018, "##ia": 22497, "谜": 25239, "##ess": 9655, "##and": 10565, "##stro": 1525, "##bu": 11256, "宙": 36341, "烛": 16139, "仃": 844, "##370": 2674, "鸦": 18213, "稣": 4732, "踞": 4766, "痊": 5333, "痤": 4269, "疮": 25026, "掺": 8851, "p1": 4662, "邢": 19401, "潍": 14606, "383": 3597, "翟": 9390, "赃": 16763, "model": 9397, "##pi": 17496, "##lot": 4235, "left": 1883, "刹": 73735, "喇": 24195, "叭": 18857, "beta": 2076, "##mo": 25112, "##rn": 11167, "1g": 3732, "##ene": 4354, "##ral": 4908, "##admin": 138, "##ist": 11443, "##ration": 2700, "##cus": 1881, "##so": 12913, "##ep": 6328, "##lic": 5705, "##nar": 1903, "##el": 29199, "##ata": 2321, "int": 16548, "##tt": 10533, "##ua": 16105, "##rt": 25281, "##ers": 10711, "##ot": 17860, "##val": 4951, "##ue": 25536, "##port": 9073, "##ex": 13168, "##tra": 10868, "##deo": 1328, "##od": 11119, "##ill": 9812, "##ion": 20322, "year": 3490, "##the": 8059, "##wer": 4567, "yu": 20638, "im": 27268, "we": 34529, "##ri": 31715, "##lli": 6487, "##rade": 2960, "##lus": 3892, "was": 11030, "inc": 11452, "##rea": 7265, "##hai": 5667, "##ort": 6647, "te": 21027, "##rm": 10087, "global": 4064, "vol": 5063, "##ume": 1822, "main": 3128, "##as": 20758, "##cent": 3541, "gov": 13656, "##ern": 7239, "##ment": 15535, "control": 3034, "po": 25709, "real": 7283, "es": 14471, "and": 75384, "price": 2529, "eco": 8948, "##no": 23587, "##side": 4632, "##rge": 5038, "##den": 4742, "##tant": 1466, "##ial": 6032, "##up": 11381, "##ise": 5888, "off": 5747, "eur": 3796, "##ope": 3364, "##bility": 1479, "fed": 5347, "rate": 1327, "##ari": 5023, "##tin": 4713, "##gn": 7679, "september": 398, "rmb": 8720, "##tion": 24020, "press": 1543, "##ure": 14295, "##bank": 2107, "##ations": 1752, "ping": 1522, "said": 3086, "well": 4495, "##ct": 17304, "fu": 10116, "##rth": 3943, "##ction": 6640, "##ula": 4595, "future": 3047, "##ting": 7989, "will": 11596, "##ness": 3344, "market": 5312, "more": 9766, "than": 7089, "ci": 18855, "##ties": 2780, "##ig": 11379, "##mand": 2235, "##able": 4986, "##tment": 2828, "##ec": 17143, "##tive": 4637, "##rin": 4422, "development": 2157, "##form": 3300, "##ssion": 2718, "release": 868, "data": 9817, "first": 5597, "three": 2336, "##tal": 5795, "##ity": 10197, "about": 7431, "388": 4958, "##row": 5134, "rose": 3248, "pe": 49812, "##age": 7759, "point": 3631, "##red": 8206, "sam": 6624, "##rio": 3508, "last": 2694, "bill": 3689, "great": 3865, "438": 3725, "##85": 27836, "##air": 3816, "##man": 18311, "##ura": 7328, "##tory": 1234, "##stry": 1774, "mu": 20623, "take": 5237, "##rma": 2761, "##ev": 9261, "##ement": 1650, "active": 1466, "guide": 1350, "double": 1816, "engine": 2968, "public": 4029, "##ren": 10886, "##urs": 2901, "##hip": 2980, "support": 1829, "fun": 6975, "science": 4310, "technology": 3445, "enter": 1699, "##pr": 9566, "small": 1796, "micro": 5284, "em": 13697, "##ging": 1078, "##ries": 2749, "national": 3378, "##tter": 5346, "play": 6907, "##nan": 6367, "##ving": 3905, "economy": 739, "information": 2080, "news": 10562, "plan": 3961, "##een": 5057, "five": 1954, "##ring": 4141, "##wi": 12891, "focus": 1577, "##ult": 6516, "##va": 15160, "form": 4270, "number": 2481, "##ale": 4043, "over": 9027, "##ons": 5945, "##ding": 7559, "##ner": 8235, "##ation": 10436, "##eg": 8794, "##ted": 7037, "core": 3962, "bi": 19253, "##net": 6626, "green": 3826, "low": 6342, "##bon": 2175, "eq": 5035, "mate": 8735, "##rial": 3228, "digital": 1787, "creative": 750, "journal": 1809, "state": 4491, "key": 6616, "##cel": 3869, "##era": 6184, "up": 16776, "now": 4937, "##ument": 2056, "level": 4958, "design": 5858, "system": 4179, "item": 2453, "##vo": 11884, "##lvin": 1574, "also": 3098, "red": 7892, "##uce": 2230, "road": 3981, "##map": 1426, "##per": 15144, "out": 15622, "previous": 358, "##set": 3907, "super": 10206, "##vis": 6331, "admin": 1133, "##un": 24706, "##cil": 2204, "sas": 1826, "##ning": 4727, "les": 5826, "mix": 6444, "##oy": 8985, "start": 4061, "##tee": 1628, "##ments": 2157, "##mer": 6552, "##public": 1133, "##sue": 1403, "##ple": 7169, "special": 2416, "##ification": 1171, "internet": 2139, "financial": 2100, "name": 4082, "##cing": 2085, "div": 4677, "##ide": 6470, "into": 3553, "##our": 5249, "mobil": 299, "##ean": 2632, "eva": 4743, "##mma": 1593, "by": 24970, "january": 239, "october": 866, "##lish": 1848, "network": 2509, "group": 6815, "ann": 2314, "structure": 730, "##ju": 6372, "again": 2534, "from": 13311, "##iginal": 1507, "##cia": 4588, "##eh": 2219, "##ens": 3846, "##ran": 16198, "modern": 1294, "online": 3029, "media": 3104, "report": 2455, "japan": 1767, "##ese": 2176, "next": 3883, "del": 7276, "target": 2707, "this": 13411, "##ko": 10445, "##ear": 5206, "sign": 2460, "彦": 34679, "迄": 21192, "##word": 2300, "reply": 256, "today": 1810, "##hen": 6832, "##urn": 5095, "##lines": 985, "##ses": 2563, "after": 4072, "pu": 15234, "var": 4961, "##gion": 1131, "##tions": 5279, "##ould": 8225, "your": 14690, "##des": 3533, "click": 1277, "but": 12749, "our": 5510, "##face": 1424, "text": 5133, "voice": 1215, "钮": 31839, "橹": 753, "渎": 5433, "惬": 13862, "tips": 10390, "樽": 1726, "旖": 2995, "旎": 2947, "泷": 2185, "皓": 12503, "芽": 42605, "窟": 14864, "礁": 18041, "颐": 13871, "斓": 8844, "凇": 1551, "犁": 7298, "狩": 4242, "篝": 2949, "淞": 3418, "1991": 12014, "谧": 7984, "稽": 26970, "菇": 70234, "161": 16399, "炭": 91498, "蟠": 3225, "窑": 31284, "瓷": 98399, "斋": 15515, "胫": 3129, "狭": 29917, "沽": 15105, "釉": 23178, "琮": 870, "榆": 17467, "珐": 4162, "琅": 17219, "芍": 3114, "雉": 1442, "钧": 14387, "汝": 14781, "橄": 20032, "榄": 21428, "蝠": 7952, "卉": 16767, "戟": 5097, "槌": 3434, "侈": 34873, "豇": 1349, "矾": 2717, "镂": 8632, "##las": 4252, "濯": 1252, "菩": 33119, "陀": 21809, "隋": 13374, "椭": 5429, "棱": 14103, "荸": 1951, "荠": 5021, "hp": 4139, "390": 8397, "##mah": 5711, "瞿": 5161, "galaxy": 19420, "note": 33854, "1909": 1780, "##84": 17891, "珑": 8398, "毯": 26937, "褐": 17435, "ep": 9971, "rpg": 2880, "##mit": 4034, "square": 1401, "##ix": 5779, "cos": 9916, "apps": 3472, "##tore": 2259, "##ings": 4417, "##ora": 4633, "wap": 1244, "〔": 19069, "〕": 19092, "涝": 15216, "粪": 16476, "淹": 18069, "咛": 1127, "咐": 6134, "泵": 32445, "##py": 2169, "泱": 2456, "颧": 4149, "黔": 18070, "皙": 7231, "◆◆": 21542, "##◆◆": 186049, "##◆": 20575, "蹭": 19694, "懊": 4943, "耿": 19879, "奴": 28711, "icon": 2802, "舵": 7045, "诛": 5412, "356": 3982, "蹶": 2376, "冤": 20915, "枉": 10458, "##41": 28540, "a7": 4608, "琳": 56126, "巢": 45871, "gl": 40604, "##ter": 18029, "##mb": 12509, "sarah": 1459, "anne": 1162, "johnson": 1337, "##sa": 22123, "##ug": 6476, "##get": 3599, "1924": 1877, "collection": 1266, "##nba": 1462, "##um": 13919, "lee": 5918, "jack": 4429, "1976": 6197, "##ann": 3425, "##ol": 23292, "dream": 3735, "states": 1134, "##mporary": 425, "photo": 4134, "##raph": 3835, "##web": 2618, "##mond": 1068, "1995": 17498, "##ome": 5030, "tom": 7259, "##ats": 4115, "self": 2774, "port": 5813, "robert": 3965, "girl": 4589, "hall": 3105, "##way": 5748, "peter": 3578, "##ja": 8228, "series": 1315, "ghost": 741, "adam": 2004, "##ss": 26847, "380": 12027, "撬": 12320, "394": 3017, "祠": 11780, "遏": 20977, "g7": 2430, "蓉": 53836, "g3": 5172, "偌": 2892, "屹": 8990, "拘": 57515, "旷": 13730, "伎": 4834, "脯": 3799, "捞": 48213, "漳": 19785, "伞": 44293, "##ler": 7277, "##zo": 5055, "##tm": 5173, "##ella": 2034, "瓢": 5287, "cam": 4200, "##lle": 6357, "蚕": 15954, "293": 4248, "275": 7548, "304": 7653, "835": 3205, "131": 19938, "##015": 3906, "汞": 4995, "尉": 6538, "淖": 2916, "鄂": 20225, "抡": 1561, "镐": 7595, "锹": 2088, "邵": 26773, "yi": 7584, "##jie": 3386, "譬": 13879, "偕": 3379, "媳": 38041, "婿": 10493, "熨": 4492, "扪": 1457, "嗝": 3509, "噜": 7481, "敖": 4710, "呲": 1108, "詹": 32776, "nba": 36426, "tvbs": 384, "颊": 11838, "靜": 319, "1994": 15067, "裘": 3895, "粽": 8238, "囤": 10072, "貂": 4169, "560": 11614, "710": 4040, "870": 4068, "299": 9337, "##1000": 4990, "201": 6143, "門": 1822, "國": 4464, "節": 685, "挞": 3482, "咁": 2268, "藉": 11450, "嚐": 67, "mg": 8791, "##gl": 6177, "題": 1325, "詞": 299, "間": 2120, "語": 1197, "滿": 610, "follow": 3067, "採": 824, "挚": 16053, "薯": 46429, "馔": 825, "醬": 76, "芥": 8830, "266": 6562, "ok": 15213, "##to": 22550, "##ber": 8022, "唔": 6074, "嚟": 725, "琰": 2088, "贰": 4628, "诠": 25912, "羯": 15280, "mi": 36958, "##yo": 4876, "奚": 4266, "雯": 24036, "秤": 23041, "蝎": 24174, "dota": 4201, "h6": 9231, "痕": 59508, "2700": 12418, "##ps": 20566, "250": 38238, "dx": 4090, "194": 3671, "267": 5419, "esp": 12893, "x7": 6393, "204": 12265, "s6": 15693, "215": 13397, "s3": 15946, "508": 7115, "5s": 7805, "269": 6031, "6m": 4328, "粥": 52361, "熄": 17802, "焖": 12931, "##ji": 12910, "##011": 7423, "篑": 1541, "拯": 20697, "赅": 1215, "俐": 8065, "忡": 4021, "邯": 13041, "郸": 12776, "崭": 14453, "notes": 905, "疟": 1923, "喙": 924, "##ku": 5589, "鳝": 3140, "禅": 41250, "颌": 7044, "豚": 11630, "７": 9990, "跋": 8430, "１８": 2439, "８": 8003, "##５": 13060, "##００": 6062, "112": 19027, "狸": 10331, "吟": 14493, "歼": 17690, "氓": 7955, "倭": 2261, "tm": 9168, "犬": 40009, "吠": 1691, "晦": 6879, "殴": 18403, "嚷": 7434, "##n1": 2740, "趸": 3088, "瞧": 17525, "斟": 3794, "姥": 15357, "憨": 7355, "莒": 1488, "class": 6882, "##dy": 7351, "kate": 1994, "哇": 17472, "##ature": 1663, "non": 4795, "book": 4519, "筝": 17471, "idea": 4455, "close": 1555, "reading": 1322, "pre": 15112, "##sion": 4526, "##cal": 4646, "think": 5599, "\\": 17339, "汲": 9411, "哺": 19047, "diy": 11831, "4s": 48282, "##press": 2054, "莓": 33348, "202": 12460, "life": 8365, "##light": 3333, "##home": 2161, "usb": 18445, "harry": 828, "幂": 32704, "渺": 9500, "弛": 14118, "宕": 7435, "簧": 8952, "270": 12529, "autocad": 677, "##sk": 9921, "##ws": 4794, "##lon": 3912, "咩": 2968, "baby": 15267, "ⅳ": 2843, "邂": 10984, "逅": 11236, "隘": 5231, "戕": 600, "咒": 19578, "觅": 16789, "缎": 4837, "鹦": 4315, "鹉": 3985, "稷": 2298, "雎": 1152, "鸠": 3140, "窈": 2878, "窕": 2261, "膏": 63335, "嚏": 4573, "荽": 696, "匍": 1403, "匐": 1332, "楔": 1676, "20mm": 1020, "5mm": 4949, "窍": 21677, "帕": 72689, "##ker": 8810, "##bc": 7696, "##jy": 7416, "##→": 6945, "甭": 1915, "暧": 10416, "paypal": 1821, "costco": 909, "##rd": 15727, "ipo": 33628, "哽": 3738, "裆": 2738, "庇": 8287, "谎": 28259, "##cs": 6441, "##nc": 7969, "##og": 9250, "##hz": 13856, "##db": 7295, "##ous": 5152, "蝉": 12752, "top100": 1534, "裨": 3162, "##75": 31539, "pdf": 4006, "gui": 2691, "痰": 25775, "疖": 793, "淤": 14386, "脓": 9346, "嗽": 27113, "垢": 15970, "##42": 25341, "讼": 57050, "##ym": 9112, "##try": 1309, "break": 4308, "##urt": 2650, "馒": 12634, "##fr": 10457, "##ien": 4700, "fans": 883, "悄": 60288, "觊": 1870, "觎": 1859, "abs": 12385, "盔": 13550, "aug": 423, "##ger": 6708, "##wei": 3823, "##110": 7648, "pd": 8124, "m1": 14759, "##gc": 7670, "2b": 5108, "凛": 4944, "眶": 7158, "佣": 42785, "□": 14518, "钵": 7125, "呷": 1637, "##house": 2838, "2030": 13272, "##123": 7661, "罐": 55019, "磕": 14629, "眷": 11076, "970": 5167, "980": 7735, "990": 5466, "阱": 21253, "##43": 23120, "##ks": 7894, "弩": 4678, "拄": 1798, "杖": 9598, "510": 9602, "2100": 7284, "膺": 4465, "david": 6040, "##ard": 5128, "##nor": 2273, "##con": 7340, "north": 2633, "揪": 8562, "胯": 3493, "iq": 5018, "rx": 8640, "汹": 11969, "##x5": 8656, "6l": 40679, "xr": 4499, "x5": 10763, "↑": 36366, "##↑": 50096, "蕊": 7979, "024": 4845, "芜": 13634, "225": 15397, "##ria": 2340, "芸": 13185, "嫘": 759, "357": 3584, "籁": 7885, "砒": 1386, "who": 10199, "烃": 5468, "骚": 33843, "##you": 6558, "##can": 3876, "leo": 2647, "茄": 46307, "蛙": 16619, "旱": 21320, "簸": 6467, "338": 5654, "蹴": 4895, "篙": 419, "捋": 2244, "★★★★": 11463, "★★★": 11367, "钙": 58560, "佝": 1543, "偻": 1614, "丞": 7567, "絮": 13000, "诏": 5596, "坟": 16091, "猖": 4169, "297": 5199, "凋": 7264, "窜": 11423, "ｉ": 1837, "##ｐ": 3466, "##ｄ": 2518, "２０": 16136, "１３": 2357, "##４": 7445, "琊": 5234, "遴": 11054, "丫": 17203, "159": 17409, "285": 8033, "##05": 28559, "##33": 42910, "hair": 1017, "箴": 2656, "1939": 3115, "穗": 12112, "1922": 1712, "襟": 10159, "绶": 1272, "b1": 11720, "b2": 9345, "##ab": 11662, "1934": 4349, "靴": 27448, "##bin": 5181, "1941": 3905, "杵": 1306, "img": 3067, "p3": 2348, "m3": 8627, "绷": 11984, "d1": 4133, "1940": 3611, "d2": 5190, "234": 6431, "d3": 3408, "mp3": 5707, "780": 6799, "555": 4586, "驹": 5603, "哼": 9155, "test": 4966, "excel": 10207, "##lent": 3025, "##ude": 5746, "##oi": 5003, "##lts": 2985, "##yy": 3753, "305": 9388, "檀": 31593, "谕": 2473, "嵌": 29057, "屉": 8370, "##gen": 5619, "洱": 20118, "哉": 7894, "│": 6250, "24h": 740, "216": 8877, "浒": 5474, "咔": 5505, "颅": 10535, "麋": 1282, "蜘": 10426, "蛛": 15419, "蜈": 4240, "蚣": 1542, "##ey": 11667, "##520": 6041, "cisco": 291, "2019": 10811, "jeff": 2477, "##rris": 1429, "cctv": 11575, "鹞": 894, "pos": 12111, "##yan": 6106, "##media": 2566, "冈": 25697, "珀": 22593, "##fo": 17560, "囧": 8560, "lg": 13511, "etnews": 57, "30000": 5674, "矽": 593, "tft": 1714, "lcd": 4808, "display": 2216, "50000": 3947, "4g": 31781, "##250": 4165, "##mhz": 3473, "嵘": 3342, "114": 17374, "260": 14656, "gis": 1591, "##pd": 2264, "##day": 5337, "530": 9788, "##＞": 1594, "锥": 8228, "e1": 2570, "ρ": 291, "##θ": 383, "{": 19722, "}": 19579, "≤": 4684, "△": 20312, "##abc": 1171, "坝": 39878, "葺": 885, "嘘": 12639, "amp": 66249, "掠": 10919, "诙": 3333, "祐": 1857, "##logy": 1665, "裴": 9058, "髋": 4928, "淆": 7750, "紊": 15136, "磷": 22551, "镁": 13672, "羟": 2157, "雌": 16869, "阈": 1872, "绞": 13102, "氢": 21413, "噻": 1141, "荔": 19855, "295": 5128, "690": 4506, "243": 6372, "埂": 2644, "255": 12447, "艇": 55115, "377": 4069, "12000": 6383, "洄": 1149, "##vc": 2385, "499": 7106, "2d": 5341, "tw": 5722, "8mm": 1293, "mp4": 3318, "ipod": 5150, "##ω": 1177, "##mw": 5480, "嗡": 6144, "骋": 7681, "beyond": 2054, "ktv": 9363, "hero": 1528, "maria": 1424, "##vic": 2734, "烬": 2511, "垣": 6357, "嚓": 2144, "荆": 26232, "轲": 7113, "蔺": 3021, "滕": 10936, "琵": 4237, "琶": 5452, "##bot": 4253, "嵬": 824, "霖": 17194, "ee": 2885, "article": 4054, "294": 4005, "htm": 2497, "##cca": 1456, "##uk": 6097, "##eng": 8128, "##lls": 1710, "gre": 8862, "fri": 2001, "217": 6857, "174": 9556, "擒": 9104, "##bert": 2791, "##ute": 3923, "cf": 18503, "##ius": 1767, "dd": 6864, "##tc": 8203, "棋": 79052, "##ite": 5733, "##ake": 5362, "q1": 3214, "q7": 5898, "##yn": 11423, "line": 8775, "ko": 16703, "premium": 1740, "plus": 16147, "铬": 22278, "nova": 4305, "q2": 2999, "##ek": 8591, "##bat": 1938, "116": 16602, "327": 4534, "g20": 14048, "荟": 16954, "苛": 19137, "310": 10245, "妞": 17402, "坨": 4894, "mp": 9078, "##sn": 2889, "##a2": 3585, "single": 1289, "##mes": 2480, "##ins": 7486, "rd": 3677, "##61": 33137, "##ef": 12908, "395": 4399, "缤": 15706, "镯": 10473, "镶": 19071, "黛": 19766, "唁": 2363, "1902": 1734, "1920": 6338, "愫": 2857, "1923": 3317, "倜": 983, "傥": 981, "怦": 2029, "笺": 1850, "孽": 4291, "阀": 24645, "虏": 5792, "1925": 2577, "疤": 13468, "瞑": 694, "潋": 731, "滟": 839, "帧": 8271, "蝶": 34627, "lol": 8834, "┃": 1471, "怠": 14522, "氮": 14595, "§": 24925, "赎": 48942, "universal": 508, "management": 3873, "hong": 2343, "kong": 1355, "～10": 1016, "〈": 7363, "〉": 7836, "384": 3715, "##＝": 5940, "÷": 6474, "331": 5348, "504": 3597, "603": 11711, "##fun": 4178, "##～10": 4791, "谣": 47409, "炊": 7526, "袅": 5512, "缕": 11770, "樟": 10283, "萦": 4787, "澹": 749, "霭": 1291, "惘": 2499, "##win": 3880, "dt": 4975, "##ito": 1126, "weibo": 1907, "僧": 33107, "##163": 2122, "450": 16291, "顽": 26856, "犄": 814, "旮": 951, "##ok": 8022, "ph": 20248, "##ics": 6726, "linkedin": 2218, "343": 4885, "庖": 1261, "b2b": 15641, "雏": 10253, "^": 10307, "##cp": 7008, "侥": 11576, "铢": 4036, "620": 8375, "362": 4133, "杉": 39650, "矶": 20068, "铐": 2919, "sony": 2097, "##vr": 9899, "##ass": 3635, "##lis": 2093, "zero": 2394, "list": 4836, "oculus": 5699, "嘀": 5400, "咕": 11989, "朕": 4148, "pv": 4167, "##ten": 8949, "220": 22593, "##oid": 5543, "##gs": 8368, "##tech": 2472, "##tel": 3940, "yes": 4830, "柬": 13267, "竭": 29304, "蛀": 4579, "楞": 3675, "嘣": 868, "碘": 7699, "綦": 1853, "268": 7805, "works": 1900, "008": 4381, "a5": 5649, "##49": 20235, "○": 31220, "539": 3204, "457": 3468, "1958": 5859, "##hd": 5375, "赭": 950, "sci": 3747, "xz": 1724, "aspx": 877, "207": 8192, "##kb": 3316, "汀": 13851, "1961": 4233, "邑": 11659, "1998": 24191, "犸": 1191, "娅": 16022, "h5": 8972, "tel": 7071, "##ica": 6771, "uk": 2870, "##tch": 6772, "##ison": 2022, "orange": 955, "ott": 3549, "213": 9425, "rc": 3394, "188": 12264, "藿": 2516, "michael": 5773, "simon": 1815, "##39": 26544, "掣": 3071, "肘": 15964, "##px": 19264, "##xt": 4122, "宸": 7298, "##340": 2182, "276": 6440, "滦": 4287, "##06": 27208, "329": 5758, "##ox": 4389, "##ah": 8299, "##ame": 5398, "摒": 7568, "##gy": 5951, "analytics": 984, "螃": 15195, "膳": 25654, "蕉": 31041, "疙": 5252, "瘩": 5245, "钠": 15739, "舜": 12075, "笋": 24623, "菠": 25528, "place": 2798, "bar": 13258, "##we": 8652, "920": 4131, "鲲": 2239, "獗": 2674, "akb48": 1151, "kit": 1906, "##aw": 5817, "牍": 967, "绅": 19078, "崎": 13965, "東": 2136, "power": 7315, "罡": 1840, "摈": 818, "啧": 5675, "犷": 4649, "枭": 5044, "茴": 3454, "荨": 2044, "##ance": 4793, "##｜": 3005, "##tan": 7486, "##by": 9722, "瀛": 3812, "妓": 7622, "$": 32765, "##tus": 955, "##gh": 8525, "mary": 1642, "jane": 1904, "蝴": 18908, "踝": 13134, "most": 3608, "want": 3698, "holiday": 597, "spring": 2342, "puma": 968, "adidas": 3934, "nike": 6675, "fb": 2089, "logo": 17016, "##dio": 1622, "##vm": 1889, "潘": 59666, "燊": 1287, "陛": 2416, "畿": 1296, "邕": 2421, "吏": 7174, "宦": 3577, "祜": 944, "虢": 823, "嫔": 2606, "罄": 5781, "１４": 1821, "榔": 3394, "刍": 788, "蜻": 3432, "蜓": 4094, "##ike": 1985, "385": 4437, "386": 4196, "袍": 19606, "绰": 9155, "诅": 4388, "##ost": 4738, "trip": 1499, "##ged": 1105, "##be": 19449, "##ast": 6002, "氨": 33561, "搓": 22316, "盥": 1197, "玻": 122950, "馅": 25333, "谆": 1694, "蹋": 1809, "蛰": 3567, "腭": 1691, "杳": 1529, "脐": 18084, "踵": 6973, "恬": 7466, "姹": 1490, "涎": 4946, "襁": 1101, "褓": 1115, "浜": 2679, "肋": 15076, "肛": 12034, "鲫": 7267, "猿": 7076, "闾": 1093, "855": 3833, "颓": 9045, "昙": 4692, "106": 21774, "骛": 2745, "淦": 1349, "匈": 14436, "婕": 9759, "秧": 7184, "拈": 3375, "##∶": 10832, "樊": 14682, "ms": 10267, "##94": 18442, "gmp": 1936, "癸": 8063, "酉": 14617, "卯": 13081, "壬": 8861, "戌": 11019, "逞": 4831, "qualcomm": 1012, "sap": 2426, "##sis": 3321, "positioning": 76, "192": 5065, "##khz": 890, "lte": 6415, "##mbps": 1349, "quick": 1410, "cpu": 11554, "eeworld": 1417, "850": 10882, "2mm": 1569, "1m": 4828, "瑶": 27834, "391": 3218, "##500": 10894, "4800": 6402, "##ip": 12936, "悖": 7443, "1975": 5813, "oem": 2591, "a4": 10179, "桎": 1693, "梏": 1694, "耸": 11316, "徜": 3262, "徉": 3279, "虔": 6705, "聂": 15872, "涕": 9938, "2～3": 3970, "睑": 5846, "demo": 2896, "酣": 6614, "恃": 3143, "sale": 2938, "徘": 15283, "徊": 15409, "嫡": 2261, "篆": 8231, "邹": 23137, "谍": 21074, "cnc": 1940, "5d": 3998, "ui": 13206, "root": 2257, "amoled": 3482, "鳌": 20639, "##360": 6204, "3100": 11238, "羧": 442, "骇": 4731, "mx": 12117, "950": 8392, "哨": 15199, "6a": 3235, "290": 7337, "man": 19584, "imf": 11062, "usd": 4259, "##cn": 7672, "仑": 23180, "stephen": 1609, "##wt": 2050, "1936": 4837, "1986": 10261, "301": 10147, "暮": 11576, "铮": 6624, "棂": 769, "晏": 10219, "骞": 2621, "渲": 12220, "皂": 20381, "298": 6974, "呜": 6820, "229": 7067, "237": 5565, "238": 7137, "254": 6139, "286": 5976, "339": 4815, "354": 3384, "406": 4247, "411": 3499, "413": 4056, "415": 5307, "418": 4854, "441": 3483, "唧": 3827, "444": 3650, "445": 4161, "448": 3540, "460": 6133, "486": 5083, "495": 4818, "591": 2795, "777": 3435, "787": 2551, "790": 3032, "799": 2972, "鳖": 2622, "838": 3347, "886": 10381, "900": 22584, "fbi": 3360, "war": 5319, "easy": 3979, "134": 14878, "1350": 3956, "茧": 6785, "leave": 1125, "##king": 4932, "154": 11202, "毙": 9282, "峙": 6240, "##com": 7423, "lily": 1563, "andrew": 2129, "涪": 3253, "023": 4336, "矜": 3190, "萤": 5627, "窠": 936, "##bus": 2090, "cheese": 716, "##fer": 4974, "##ert": 3212, "v1": 3781, "##hp": 2787, "100km": 12746, "瘫": 23638, "痪": 9915, "『": 15981, "』": 15706, "熔": 14030, "铿": 3276, "锵": 3851, "1389": 839, "钳": 7586, "get": 17414, "眺": 8232, "玥": 4664, "##ine": 11982, "陨": 11950, "##480": 1952, "ella": 3526, "惆": 2214, "怅": 3090, "叨": 16718, "犊": 2644, "奄": 3670, "痞": 4095, "吮": 4788, "榻": 8494, "1911": 2202, "溥": 6439, "翊": 2015, "炬": 9549, "恙": 2836, "啰": 5133, "撮": 8507, "辫": 10318, "衙": 4166, "妾": 4842, "1906": 1644, "final": 1967, "##page": 643, "嫣": 17793, "嬅": 1339, "##2015": 8661, "intel": 7884, "corporation": 895, "its": 3653, "sb": 5219, "cfa": 5880, "晗": 10019, "炜": 9816, "soho": 3199, "鹭": 8825, "荫": 14162, "b2c": 7031, "505": 6013, "窘": 9289, "褂": 2755, "栩": 7994, "孜": 17197, "煦": 2873, "攸": 3503, "婺": 6023, "397": 4491, "521": 4321, "701": 6469, "嘢": 1569, "219": 8155, "407": 3898, "lp": 10203, "婊": 4190, "sk": 15652, "s5": 7637, "疚": 8177, "膘": 2986, "铉": 1925, "☆": 5655, "##☆": 25264, "╮": 765, "╯": 1332, "╰": 441, "╭": 755, "page": 5716, "##wo": 5963, "☆☆☆": 3347, "av": 11007, "##012": 4581, "##ani": 5089, "膨": 28377, "##014": 3217, "t2": 4636, "腮": 11008, "邸": 5555, "谚": 4685, "蠕": 10833, "iphone6": 8823, "馍": 7942, "涮": 9153, "臊": 1756, "荞": 4533, "##bian": 1326, "奂": 3806, "272": 5724, "##oa": 4834, "au": 13706, "##stin": 2221, "酌": 9859, "亘": 3510, "妳": 2892, "666": 5525, "無": 2639, "瘙": 8920, "戊": 11959, "蓓": 4331, "辗": 9867, "缉": 14217, "s7": 10121, "edge": 6308, "##force": 3556, "facebook": 22311, "徕": 3061, "595": 3476, "359": 3433, "429": 3433, "嵊": 1706, "甬": 3683, "s1": 5750, "485": 7536, "##ore": 6810, "gd": 6161, "4k": 15086, "193": 3969, "xl": 5829, "look": 10914, "搪": 3212, "asr": 3071, "888": 9532, "073": 4016, "earth": 1523, "261": 6428, "黝": 2457, "勘": 28005, "眨": 7220, "叼": 3150, "睾": 7097, "api": 33168, "##gm": 3857, "ky": 2639, "##oper": 3241, "416": 4577, "426": 3327, "417": 3827, "414": 4387, "502": 5060, "玮": 13418, "幡": 2896, "踱": 1321, "瞥": 2883, "筵": 1931, "簇": 7806, "拽": 11960, "踉": 1546, "跄": 1551, "摁": 3986, "慑": 12695, "谬": 6112, "攘": 5559, "愕": 2647, "篓": 2710, "蔑": 4874, "戾": 2203, "##len": 7347, "meta": 1827, "surface": 9098, "ps4": 4947, "nc": 6972, "⊙": 4133, "db": 5071, "娼": 6628, "揍": 4594, "wp": 3570, "喵": 13595, "tmt": 4946, "鲍": 33618, "exe": 2510, "##tic": 5474, "锚": 7379, "ｙ": 822, "晾": 17327, "##999": 8047, "353": 4347, "233": 9274, "382": 4456, "214": 7197, "铲": 16861, "茭": 1290, "248": 7294, "旻": 2448, "12345": 2681, "岬": 572, "掬": 1947, "gm": 5875, "遛": 6657, "590": 6414, "礴": 5628, "迩": 2292, "漾": 7438, "cho": 8100, "##ice": 7849, "east": 1742, "star": 5925, "##und": 7713, "沐": 21248, "锢": 2484, "1974": 4819, "1943": 2751, "1944": 3164, "1954": 4113, "1928": 3124, "##rian": 1467, "ng": 5303, "##ad": 18079, "v8": 7833, "##ham": 4896, "##ada": 2224, "ig": 8116, "滔": 9634, "12306": 2720, "牟": 20689, "瘁": 1869, "箫": 4423, "撅": 3843, "##＋": 6154, "缄": 1856, "褶": 11781, "##2017": 2910, "绯": 14348, "撩": 21552, "tee": 2546, "ol": 10352, "chi": 13010, "婵": 1856, "岘": 1524, "妩": 6956, "##①": 1662, "芷": 5753, "茜": 16210, "energy": 2393, "boost": 2331, "3t": 3345, "##rip": 1860, "white": 3560, "##et": 28672, "prime": 2704, "fit": 3663, "盅": 2514, "10g": 4331, "100g": 4812, "枸": 22471, "杞": 25677, "掰": 9423, "芡": 4945, "蘑": 17907, "50g": 3171, "vivi": 2164, "##dp": 4234, "##sy": 4918, "##tp": 2077, "榭": 2902, "菁": 9260, "赝": 2294, "勐": 2664, "嗜": 10909, "哮": 14276, "bigbang": 1769, "怼": 1827, "簌": 1080, "◎": 9588, "阂": 3042, "##app": 3060, "竺": 4129, "瘟": 4805, "羁": 11168, "茗": 8682, "沏": 1743, "5a": 8326, "680": 8434, "830": 5429, "282": 5640, "245": 11256, "iptv": 1865, "嫑": 121, "##wang": 4162, "檬": 31839, "筐": 7363, "饽": 6507, "徇": 1605, "陂": 3771, "咫": 3682, "涟": 5618, "瑛": 5750, "鹂": 609, "啾": 1189, "蓦": 1862, "阑": 3921, "缱": 725, "绻": 722, "孑": 828, "璀": 9312, "璨": 9654, "6500": 6887, "sohu": 7924, "萱": 13335, "婶": 5660, "阪": 7754, "hey": 1305, "##dan": 3145, "の": 7251, "卮": 202, "劉": 468, "丶": 7893, "唏": 5522, "check": 2517, "昀": 3809, "讹": 3520, "匡": 6747, "赡": 5949, "626": 3115, "痉": 7149, "挛": 7600, "##xp": 3424, "莘": 4410, "珞": 5412, "珈": 2895, "垠": 2314, "曳": 5921, "祚": 1280, "牡": 22706, "匣": 6349, "隽": 4844, "淌": 9552, "柘": 1762, "遑": 1403, "1973": 4881, "円": 544, "let": 5628, "蟑": 5207, "螂": 6694, "balance": 1940, "麂": 3063, "kitchen": 783, "亵": 5756, "dna": 12881, "碉": 3280, "斐": 12234, "怂": 4564, "醺": 2482, "癞": 709, "瘀": 9180, "恕": 7194, "吱": 4545, "樵": 3295, "兀": 5049, "狰": 1602, "狞": 1720, "叽": 3671, "哩": 5711, "晌": 1105, "嗤": 2273, "拣": 8185, "痂": 2097, "憎": 3910, "嘎": 12173, "唆": 2451, "＼": 432, "啄": 2312, "猩": 12938, "蹿": 5312, "汶": 8126, "mtv": 910, "798": 3999, "us": 14812, "桨": 4723, "惋": 5400, "砝": 2695, "磬": 953, "飨": 1531, "鎏": 1843, "擂": 6235, "墩": 12672, "1918": 1881, "滇": 15799, "蕃": 4120, "窖": 8998, "浚": 3362, "箍": 5083, "棺": 10243, "徙": 7673, "椁": 1372, "蔷": 3884, "啫": 1845, "喱": 8716, "￥": 16635, "pt": 7442, "avenue": 542, "kiehl": 242, "fresh": 1618, "just": 5630, "歆": 6013, "凿": 10137, "辍": 6013, "##coin": 1162, "潦": 3659, "amazon": 2606, "alpha": 3806, "##bet": 3502, "microsoft": 2590, "##ald": 1234, "moto": 7955, "starbucks": 235, "3m": 5134, "canon": 666, "christian": 1576, "dior": 3934, "##eme": 2103, "american": 2953, "united": 1497, "##life": 3750, "huawei": 1064, "##ii": 3938, "##ier": 4702, "lenovo": 332, "toyota": 799, "volvo": 638, "##table": 1002, "碴": 1223, "噎": 2395, "##mail": 1230, "迸": 5825, "google": 19983, "ef": 5475, "ak": 5838, "揩": 1248, "龌": 960, "龊": 851, "嫦": 2853, "珮": 540, "acg": 1196, "cb": 6233, "##nda": 2996, "mmorpg": 741, "甄": 25025, "秸": 8487, "秆": 9066, "##▎": 518, "wu": 8217, "笏": 448, "茉": 6786, "冽": 5557, "蜕": 11639, "悸": 7042, "512": 5968, "莠": 4875, "jo": 12764, "victoria": 1318, "secret": 1593, "塬": 1583, "翳": 1055, "渭": 13826, "陇": 9734, "苻": 689, "蒹": 536, "葭": 756, "诽": 2814, "谤": 3375, "岌": 4450, "dean": 486, "william": 1967, "inside": 2195, "兢": 9522, "##play": 3248, "451": 3927, "纫": 2802, "夭": 6664, "##0m": 6292, "km": 6263, "1907": 1533, "195": 8090, "246": 6494, "buy": 3189, "cto": 3093, "長": 2257, "寧": 2292, "紘": 71, "face": 3357, "札": 4306, "幌": 4474, "oppo": 24937, "抠": 8033, "vivo": 13250, "vcd": 479, "跤": 5513, "泯": 2561, "##dn": 6524, "##rss": 280, "惰": 9209, "##mmy": 810, "##tf": 4685, "贿": 45404, "婪": 9332, "堕": 9835, "劵": 2096, "寮": 3664, "啪": 20947, "塾": 2618, "259": 5837, "visa": 3078, "2050": 4593, "坂": 5782, "girls": 1007, "##oo": 10323, "皋": 6772, "ru": 10339, "##hang": 2836, "##wu": 3714, "5℃": 4243, "10℃": 4071, "瞅": 6529, "4a": 7057, "珲": 2298, "螨": 4245, "029": 5855, "蔗": 10699, "1970": 8133, "cnn": 4533, "396": 3572, "899": 3632, "內": 3180, "茹": 13707, "婀": 2245, "##lia": 4820, "##ita": 6215, "yin": 2662, "ltd": 3021, "player": 1683, "##land": 6008, "moba": 1497, "fps": 1839, "##are": 5690, "##world": 2869, "##ze": 9283, "阎": 10390, "▍": 8553, "218": 9178, "烨": 9984, "##hk": 1551, "##aid": 1098, "##gan": 5149, "jonathan": 1035, "##berg": 3384, "囚": 8885, "枷": 2520, "戮": 3412, "丕": 2229, "颍": 3134, "荀": 3694, "镛": 654, "钊": 4785, "寅": 17599, "樾": 1249, "##note": 2803, "幺": 3885, "s8": 3948, "掷": 10026, "kevin": 2105, "best": 4471, "wordpress": 538, "倘": 12910, "骡": 3130, "漩": 4933, "峥": 10454, "彪": 18412, "俺": 7934, "噌": 2144, "涣": 2764, "multi": 2671, "##men": 4404, "select": 2286, "缜": 4383, "gmail": 811, "810": 6766, "860": 5224, "7500": 8027, "溧": 4828, "960": 8538, "turbo": 1818, "##wan": 4599, "耒": 906, "啷": 543, "ff": 2784, "2g": 8273, "ling": 1290, "##well": 3004, "live": 8811, "##ily": 1881, "##ave": 2591, "##erson": 1509, "##ctive": 2269, "college": 4329, "##ck": 21041, "morning": 1302, "##self": 2619, "day": 11392, "##ever": 3888, "too": 6241, "days": 1502, "change": 2750, "something": 2125, "憔": 4162, "悴": 4340, "骐": 3132, "##ida": 2830, "gt": 19166, "鬣": 559, "衄": 479, "痈": 1318, "copyright": 582, "##©": 465, "##www": 1255, "##right": 1012, "##res": 6394, "##ved": 1954, "15000": 7878, "25000": 2914, "lisa": 1360, "##750": 2771, "##≥": 785, "燮": 1213, "佔": 437, "尧": 12492, "託": 153, "ae": 6787, "##tos": 1432, "##out": 6067, "##sta": 9734, "262": 5766, "543": 2708, "氙": 7897, "sync": 1620, "珩": 1209, "栈": 22238, "嘤": 1544, "012": 5085, "##ware": 1824, "cj": 3460, "纶": 6580, "馀": 1471, "剐": 2867, "atm": 8841, "抉": 8561, "迭": 22302, "袄": 3974, "飕": 1499, "op": 9004, "α": 3026, "dha": 2415, "nasa": 4489, "x3": 5422, "social": 2568, "##mark": 3741, "marketing": 1466, "##nny": 737, "tina": 598, "條": 528, "麼": 1765, "噗": 1678, "嵐": 60, "6s": 4891, "珂": 5775, "##her": 5918, "capital": 5612, "##nne": 3953, "##ls": 10989, "patrick": 994, "##rk": 5597, "##ors": 3319, "there": 7520, "west": 4034, "richard": 2340, "##ul": 11410, "##ich": 3290, "##ook": 3322, "land": 2541, "##mber": 1702, "jul": 2290, "qe": 7827, "jessica": 1560, "parker": 687, "##let": 3493, "##sson": 817, "呻": 1763, "讴": 3926, "1964": 4646, "abc": 6485, "307": 7514, "##②": 1955, "##③": 1754, "##④": 1521, "bloomberg": 896, "##gence": 1168, "ken": 5185, "tim": 5177, "##hy": 4792, "秽": 8060, "##tor": 8136, "##book": 4655, "studio": 4756, "##3000": 2402, "##ud": 11743, "##io": 14488, "i7": 3913, "32gb": 5349, "##r4": 2373, "##tb": 4192, "nvidia": 2893, "i5": 3288, "8gb": 3157, "gtx": 6387, "16gb": 4251, "349": 4157, "239": 6369, "6gb": 2642, "##010": 11795, "128gb": 3298, "ml": 9709, "nand": 1358, "switch": 3278, "wii": 1273, "3ds": 861, "mwc": 1152, "connect": 2589, "##md": 3328, "盹": 2100, "1969": 4794, "1933": 3288, "1982": 8908, "cdma": 1324, "褚": 6987, "郫": 4009, "m2": 14390, "涅": 14899, "槃": 3118, "3s": 3209, "jb": 2140, "tcl": 11867, "唠": 11554, "擀": 6257, "焗": 3463, "##nes": 4301, "##ara": 4816, "588": 4338, "688": 3747, "淄": 10852, "炕": 3600, "inn": 4237, "纾": 1734, "娴": 9172, "霎": 1260, "儋": 2261, "wifi": 28358, "393": 3736, "061": 1928, "##～20": 4672, "1～2": 3047, "3～5": 1818, "mar": 17040, "榉": 901, "vetements": 868, "##file": 1033, "mountain": 1179, "##card": 1190, "givenchy": 934, "骷": 3210, "髅": 3170, "run": 4703, "dm": 5342, "neo": 2009, "lab": 4645, "originals": 596, "##car": 6401, "##ney": 2023, "sport": 5241, "kanye": 399, "##ez": 2717, "dragon": 1163, "love": 9772, "swiss": 828, "杓": 345, "iu": 2673, "禺": 7448, "迂": 3244, "烊": 3254, "玺": 12036, "solo": 2484, "##gma": 1168, "##rey": 1554, "##die": 3201, "##nie": 1559, "1913": 1743, "1965": 5138, "##ider": 1739, "iii": 4839, "寰": 4490, "edward": 1068, "old": 3493, "##oman": 1365, "##ush": 3687, "241": 6307, "ppt": 9229, "zone": 819, "project": 3791, "ア": 415, "##ー": 1475, "##カ": 516, "##イ": 646, "##ル": 996, "##シ": 893, "##フト": 27, "##zone": 699, "##kk": 3645, "team": 3119, "迥": 5807, "鲶": 1915, "ly": 9329, "##nk": 10710, "眈": 3752, "358": 4195, "嘚": 1630, "鄢": 1876, "妤": 2082, "睬": 2779, "≥": 4889, "rock": 3794, "蛟": 5292, "蝙": 7864, "诿": 2926, "拚": 733, "鏖": 2228, "耙": 2357, "聿": 1225, "tvb": 5893, "language": 1796, "##nis": 2847, "玑": 2518, "express": 1909, "log": 3665, "##ical": 4422, "##rain": 2863, "##late": 1651, "##tical": 2006, "##nse": 1773, "##sent": 2182, "##ence": 2881, "##use": 8261, "style": 14035, "##gt": 4504, "before": 2671, "review": 1655, "welcome": 1010, "悚": 9932, "虱": 1274, "蛹": 4884, "痱": 2169, "枇": 3223, "杷": 3239, "##▽": 13948, "##╰": 574, "椿": 4844, "嗣": 3718, "ict": 2589, "518": 3728, "516": 4115, "绮": 22842, "桢": 2344, "1916": 1577, "1888": 1528, "ｌ": 1166, "ｇ": 1455, "##ｕ": 1103, "##ｉ": 3606, "##ｂ": 1495, "580": 12064, "伢": 1223, "嗔": 2623, "336": 6184, "322": 6154, "##rid": 5828, "砷": 2633, "胭": 5564, "皴": 850, "皿": 5375, "哔": 3811, "art": 8000, "itunes": 2020, "##ague": 903, "##ull": 2864, "##nder": 2715, "後": 5735, "冗": 5456, "瓴": 1702, "r9": 10539, "3mm": 1478, "p10": 1027, "625": 5627, "64gb": 4760, "埗": 1167, "衿": 462, "灼": 13407, "8k": 2201, "##other": 2901, "oracle": 1893, "cloud": 3162, "netflix": 3227, "wi": 20389, "qt": 1105, "莺": 4785, "ｏｋ": 63, "瑾": 7404, "№": 138, "379": 3674, "撲": 94, "##365": 6225, "1867": 1277, "睇": 2452, "鹌": 2546, "鹑": 2728, "粳": 5100, "溏": 1791, "xxx": 5431, "脍": 2345, "lumia": 2747, "1020": 2452, "xp": 4414, "296": 4712, "氡": 996, "d5": 2826, "bot": 6445, "##tle": 2517, "199": 6902, "楂": 12580, "漉": 3094, "甙": 1831, "邬": 2607, "晔": 2613, "濠": 2942, "叁": 3644, "仄": 1907, "毗": 7967, "蘸": 14536, "蕨": 1919, "稞": 2147, "炯": 4368, "use": 4944, "##rent": 3936, "##ways": 2904, "feed": 917, "town": 1197, "bus": 3137, "street": 2840, "##ell": 6263, "##ther": 6832, "cook": 1965, "##ful": 4723, "table": 2672, "jump": 1644, "happy": 3483, "fast": 2792, "glass": 1756, "##ound": 4347, "##new": 1577, "##med": 2330, "##rie": 4098, "his": 7478, "##cket": 1923, "##ward": 2873, "##here": 2106, "back": 7369, "##hin": 5060, "rick": 1053, "manager": 1542, "work": 7268, "they": 9232, "##ans": 3922, "under": 4965, "##come": 2418, "make": 6732, "##cam": 1982, "popular": 878, "part": 11954, "made": 3808, "##ize": 3805, "years": 2674, "card": 2629, "friends": 2129, "don": 10905, "force": 1974, "family": 5193, "photos": 507, "##alk": 2679, "##ough": 3810, "pass": 5250, "post": 3027, "read": 4343, "eye": 1814, "heart": 2457, "kpi": 2818, "fc": 7562, "谌": 2701, "葆": 5274, "袤": 2968, "掂": 3459, "谙": 5025, "＊": 5483, "鈎": 60, "飾": 227, "grand": 3350, "ec": 8244, "匕": 2824, "殆": 6659, "sim": 8018, "1001": 2763, "liu": 3171, "health": 3984, "281": 5553, "405": 5289, "siri": 4742, "##san": 3488, "ben": 8473, "gp": 5833, "##＜": 1078, "##rner": 1039, "##stone": 1232, "##hat": 1839, "publishing": 128, "疸": 4328, "笠": 3448, "蓑": 811, "钗": 4173, "姊": 4457, "──": 3709, "砚": 6527, "筏": 2201, "rss": 383, "law": 2593, "##rence": 656, "davis": 674, "george": 2383, "arm": 9794, "ul": 3874, "##rant": 2025, "smith": 2269, "java": 11202, "1951": 3534, "mail": 3212, "搔": 1773, "娣": 2163, "髻": 3170, "瞌": 2324, "檐": 8892, "査": 791, "20cm": 682, "◇": 3605, "251": 6127, "～1": 2804, "244": 5147, "匝": 8447, "孳": 1027, "蜱": 1257, "ww": 2713, "##uc": 6800, "##ew": 5900, "##pper": 1273, "俳": 249, "剜": 1362, "湮": 1554, "咿": 1703, "颚": 2085, "蒿": 4863, "拷": 5141, "##580": 2744, "潞": 2816, "繇": 490, "##int": 9183, "##space": 1042, "業": 2031, "號": 1476, "march": 1043, "band": 2304, "361": 4853, "lin": 6558, "sun": 5666, "pop": 3908, "miss": 6417, "swissinfo": 27, "403": 4376, "##lf": 6580, "709": 2295, "227": 7003, "戍": 2080, "鞅": 1605, "睢": 2202, "ft": 4323, "sbs": 1978, "洙": 4302, "mbc": 1206, "尹": 28923, "dear": 791, "exo": 5996, "v5": 3131, "勝": 441, "澤": 246, "des": 6774, "豊": 123, "亀": 32, "岡": 196, "釜": 6759, "il": 6295, "##flow": 1657, "##ping": 2236, "475": 5931, "阆": 2613, "嬢": 336, "find": 3673, "store": 7619, "dl": 4724, "mode": 2276, "angel": 2899, "１６": 1871, "ｐ": 1433, "1897": 1270, "icp": 2033, "1959": 4725, "##cer": 4293, "beauty": 1717, "ε": 432, "｀": 362, "з": 946, "599": 4824, "哏": 879, "cosplay": 3905, "ibm": 13252, "娩": 18524, "岑": 6023, "裳": 5345, "only": 4427, "bang": 3192, "##ux": 4359, "king": 4349, "season": 922, "paris": 1369, "##van": 5540, "￣": 1346, "1898": 2032, "school": 7335, "##ering": 2283, "##tics": 2012, "##put": 4782, "institute": 2413, "ob": 5891, "##ship": 2450, "university": 15896, "foundation": 1220, "##fu": 5830, "##nts": 3615, "##tw": 4310, "nb": 7114, "橇": 1577, "##itz": 1230, "content": 2488, "apec": 2799, "袱": 8219, "※": 5214, "dvd": 9195, "818": 4509, "no1": 1519, "骰": 1880, "402": 4350, "998": 3017, "##af": 7123, "sdk": 2124, "瘢": 1636, "酯": 12870, "燧": 724, "cry": 1852, "蹂": 1745, "躏": 1210, "﹔": 388, "##ｓ": 2329, "1963": 4655, "kg": 8737, "°": 5483, "rp": 8106, "r1": 16575, "ebd": 4888, "cbc": 3272, "eba": 3131, "bas": 5840, "tcs": 3587, "trc": 2757, "vsc": 3398, "wma": 3019, "charles": 1469, "##ism": 2959, "##ith": 2819, "way": 4952, "祎": 7413, "award": 962, "##key": 2430, "singapore": 689, "wine": 1904, "##bell": 1131, "food": 3273, "match": 1527, "麝": 2613, "粕": 9898, "疝": 2607, "嫖": 8616, "r8": 2098, "34e": 39, "pan": 7808, "999": 11297, "鹄": 920, "梆": 1881, "舫": 1512, "隨": 590, "##wen": 4600, "226": 7344, "h1": 4958, "cindy": 654, "狙": 7329, "ib": 6969, "绛": 3541, "嘹": 1628, "呃": 3008, "彝": 9048, "侗": 5000, "##zy": 7223, "vm": 1611, "##uy": 3475, "##read": 2533, "炀": 1664, "惴": 1655, "狎": 458, "赂": 8707, "狡": 6652, "惭": 3841, "犒": 1784, "弼": 1903, "jpeg": 650, "add": 3697, "∶": 1297, "讥": 2536, "岖": 3604, "1905": 2134, "228": 9627, "699": 4992, "渥": 2244, "q5": 7224, "v2": 3137, "##chen": 2396, "»": 5734, "1932": 2839, "痼": 1078, "##ode": 1964, "磋": 10798, "bmw": 16981, "303": 6836, "嚎": 3680, "糜": 5214, "苋": 2950, "薏": 9079, "芩": 1405, "芪": 4272, "茯": 5583, "苓": 7018, "1967": 3504, "γ": 1079, "##ase": 3125, "1946": 3696, "現": 2360, "驯": 7208, "牦": 3172, "863": 3195, "york": 2264, "##ci": 17200, "msci": 2074, "country": 2545, "cia": 914, "##dar": 2407, "苡": 1775, "##hl": 5493, "513": 3607, "bt": 7513, "##bt": 3750, "elle": 1991, "max": 13521, "##firm": 542, "辘": 2768, "jordan": 3471, "##ree": 5745, "nano": 1781, "soul": 1124, "##cle": 4343, "##bel": 1903, "##pass": 1323, "tokyo": 892, "hotel": 3054, "##oto": 2017, "##lton": 1794, "human": 2152, "bay": 1734, "area": 1412, "airport": 778, "##tsu": 1146, "##kin": 2764, "踌": 2036, "躇": 2168, "resort": 1224, "辕": 4896, "x4": 1638, "ssd": 3953, "##lee": 3603, "##xxx": 3468, "杈": 1061, "general": 1781, "##mple": 744, "nick": 1712, "叵": 486, "room": 2721, "##ile": 5101, "sina": 2787, "jpg": 5634, "##ght": 4810, "355": 5126, "a6": 8245, "408": 7674, "eps": 10237, "360°": 4022, "赊": 2282, "july": 408, "##016": 6504, "弋": 3000, "栾": 4941, "##shi": 9987, "##iel": 1559, "rain": 2814, "342": 4111, "贻": 3965, "卞": 2782, "##101": 12192, "npc": 1617, "雲": 1012, "撂": 2513, "篱": 5645, "惺": 3987, "蜷": 3376, "巳": 9748, "郴": 4702, "wto": 4010, "钴": 3384, "锑": 785, "some": 6993, "##time": 3590, "airbnb": 3937, "uber": 16415, "ebay": 3043, "焱": 3785, "芊": 2634, "##lex": 2336, "fda": 4200, "sir": 2604, "##uma": 1640, "癣": 5922, "##ator": 1496, "bios": 974, "adc": 3133, "jj": 2641, "eyes": 1682, "噼": 1624, "啵": 863, "1942": 3313, "甯": 2559, "buff": 3076, "##bra": 4573, "1945": 6043, "堑": 1479, "耦": 3794, "pen": 5753, "##em": 12771, "song": 2143, "##http": 3437, "##2d": 1572, "##gnet": 411, "framework": 461, "doi": 3138, "趵": 1891, "墒": 1441, "呸": 755, "404": 4911, "##fw": 2010, "楹": 2279, "吭": 3122, "##lay": 2748, "ram": 9468, "rom": 8403, "b5": 3075, "352": 4013, "痔": 12626, "磐": 3891, "嘅": 8352, "1926": 2206, "253": 6727, "337": 6465, "347": 4657, "1894": 1315, "lim": 2522, "azure": 1743, "911": 4921, "840": 4049, "t1": 6789, "a8": 3775, "a9": 2494, "忖": 587, "##ury": 1875, "bim": 4108, "##fet": 2144, "1gb": 2167, "##bby": 687, "##dragon": 378, "mcu": 1378, "right": 3484, "##count": 3328, "##2012": 2262, "616": 2889, "︱": 2809, "垭": 3091, "292": 5106, "pure": 1207, "930": 5111, "啕": 1473, "侏": 2447, "memory": 1167, "msn": 1542, "彷": 4582, "彿": 315, "徳": 897, "咆": 3415, "臆": 3879, "咙": 7171, "ｖ": 1195, "胝": 426, "郜": 4148, "16g": 1650, "fly": 5565, "醴": 1614, "ⅰ": 4433, "ⅱ": 6100, "k2": 6384, "∣": 3954, "4m": 6447, "##talk": 1227, "掸": 1206, "踮": 2303, "侬": 4569, "##gar": 5529, "coco": 3765, "忒": 1475, "5m": 7355, "##dot": 564, "xperia": 1993, "828": 3132, "##zon": 4682, "md": 5378, "汴": 2662, "恿": 2055, "2021": 4322, "asia": 2122, "裡": 2025, "誌": 724, "準": 575, "##lr": 2224, "camera": 1185, "##view": 3997, "##itor": 1119, "50mm": 1276, "註": 573, "full": 2618, "##rame": 1471, "size": 5931, "矇": 52, "m4": 5295, "##pus": 720, "panasonic": 413, "範": 341, "佈": 470, "捨": 180, "5kg": 935, "慾": 136, "zoom": 1085, "nikon": 267, "##tax": 579, "瞭": 2750, "係": 3557, "冇": 1130, "歷": 773, "324": 5277, "•": 7007, "0755": 4581, "2l": 3642, "371": 4825, "x6": 7604, "1850": 3275, "蹉": 1539, "跎": 1385, "糅": 2188, "jr": 4971, "boot": 2044, "etc": 3324, "##ray": 2821, "common": 1752, "##iner": 1264, "ian": 1110, "##nge": 2653, "381": 3975, "2900": 4025, "氤": 1775, "氲": 1749, "镌": 3107, "泓": 5627, "呓": 330, "桅": 2372, "##eet": 695, "蔻": 5224, "菡": 2175, "##care": 1461, "c5": 3955, "##pc": 5012, "岙": 1451, "##kv": 6381, "30g": 2718, "15g": 2524, "6g": 3139, "284": 5146, "cell": 2411, "晷": 373, "s4": 2226, "g1": 6616, "鱿": 7308, "##unch": 2548, "ck": 2576, "荤": 6920, "巖": 22, "濑": 2375, "鳗": 3763, "糠": 3951, "angela": 1452, "huang": 987, "wow": 1493, "348": 4761, "﹑": 2434, "﹐": 1449, "##lter": 1152, "##dge": 1559, "plaza": 433, "酪": 15321, "鲱": 695, "silver": 1509, "##ph": 9642, "phone": 3845, "win10": 4167, "sf": 2910, "##160": 5566, "##±": 1368, "##pad": 2121, "##ae": 3152, "jp": 2618, "⑷": 718, "⑸": 430, "囿": 1770, "戎": 6234, "gallery": 619, "郷": 32, "##ston": 1961, "curry": 501, "##room": 2122, "second": 2221, "van": 5030, "##ary": 3526, "camp": 2392, "##ference": 1935, "＠": 1178, "cake": 726, "chocolate": 530, "open": 7825, "##rite": 1473, "##how": 1258, "nt": 3850, "##tier": 1102, "piece": 892, "sense": 1934, "mb": 4570, "##ible": 2050, "dog": 3086, "##nger": 1946, "bean": 958, "fish": 2058, "##plus": 4609, "##jing": 6467, "镉": 2284, "μ": 1031, "tab": 2189, "264": 6361, "376": 4390, "##↓": 18192, "蹩": 846, "蚱": 1004, "##night": 1503, "##eo": 4279, "##cture": 3539, "atom": 1128, "linux": 4512, "榛": 1978, "酗": 4297, "287": 4755, "涸": 2080, "6221": 126, "桔": 11699, "##lab": 3074, "##ala": 2333, "劭": 723, "荻": 1227, "##bit": 5547, "遁": 4283, "kids": 1748, "bridge": 1161, "wing": 1647, "##ket": 3320, "##ball": 1976, "癜": 4656, "1919": 2996, "1921": 2150, "iphone7": 10940, "忐": 4007, "忑": 4026, "喳": 4039, "荥": 3051, "犍": 689, "醚": 1459, "茸": 9333, "佘": 4033, "掴": 890, "1977": 4287, "offer": 4968, "##rmin": 1398, "metro": 1059, "acca": 3366, "local": 1901, "帛": 4231, "佗": 2217, "庵": 5457, "##3c": 1879, "##ire": 3849, "##cg": 2865, "谔": 730, "##ular": 3243, "##nnis": 1082, "sunday": 670, "talk": 3509, "url": 2485, "##cts": 1830, "von": 787, "der": 2255, "##zl": 2032, "##dden": 852, "thunder": 1138, "event": 2790, "says": 802, "wall": 2188, "hello": 5529, "call": 4886, "study": 2293, "tan": 5205, "##zen": 2077, "##test": 1435, "瓮": 2575, "ω": 1953, "鹘": 552, "′": 2377, "″": 1415, "萸": 1512, "##tar": 6261, "岱": 4387, "玟": 2699, "蜥": 1954, "蜴": 1510, "雹": 5116, "隼": 1554, "td": 7875, "湍": 2611, "james": 3641, "圃": 4550, "★★★★★": 12470, "5c": 1603, "nexus": 2210, "miui": 3257, "馏": 3629, "378": 6165, "##009": 3639, "027": 3789, "chanel": 4267, "##nel": 2116, "gigi": 2074, "karl": 1489, "猬": 3015, "##ack": 2454, "bin": 2485, "921": 2127, "讪": 5680, "螯": 1079, "笙": 8080, "##rmb": 3612, "soft": 1843, "##que": 7236, "赦": 3317, "鉻": 256, "叱": 2854, "咤": 2562, "little": 2981, "xxxx": 1620, "##●": 12916, "steam": 3962, "andy": 1341, "酢": 240, "pvc": 4193, "鉅": 77, "牒": 1358, "##rus": 4648, "琨": 3622, "20℃": 4328, "##～17": 989, "ace": 2004, "334": 5005, "050": 4212, "mpv": 14674, "640": 6779, "iv": 10727, "ces": 2035, "gsm": 1920, "吋": 3632, "gear": 3292, "殇": 2289, "##ign": 6437, "畲": 1766, "褥": 4543, "rm": 2296, "瞠": 2604, "spotify": 938, "藜": 2574, "锉": 899, "玖": 6469, "##ⅱ": 752, "##ⅰ": 257, "湟": 2709, "506": 4321, "long": 6020, "钨": 3785, "sms": 277, "彥": 79, "type": 7196, "rich": 1534, "##mix": 1544, "push": 1376, "↗": 1148, "飒": 3738, "倌": 1131, "肮": 2597, "嬛": 7147, "fintech": 1919, "圭": 14651, "baidu": 1796, "β": 4230, "瑁": 1749, "骊": 2735, "璟": 2388, "##hur": 1152, "##ros": 4752, "research": 4727, "##dia": 6658, "space": 4841, "london": 1805, "policy": 893, "飚": 3507, "##iu": 2811, "pg": 3526, "锰": 5202, "master": 4203, "##iki": 532, "scott": 1830, "懑": 755, "jean": 2523, "箐": 1092, "##dm": 5431, "唳": 2569, "踹": 6251, "蝟": 988, "＆": 3583, "霈": 9162, "熒": 196, "脩": 711, "瑪": 989, "private": 1670, "##ners": 3584, "蓮": 870, "賬": 566, "餉": 1604, "曆": 1002, "芾": 1613, "箏": 4827, "亙": 4458, "賣": 1969, "毽": 1301, "ｘ": 1902, "餃": 1904, "僑": 1746, "箇": 1658, "誨": 724, "漲": 2915, "賭": 677, "喃": 6471, "楝": 720, "◤": 816, "∟": 2613, "洵": 2127, "臬": 2627, "葉": 3899, "暸": 388, "漣": 2874, "賑": 406, "綽": 1098, "輻": 1328, "砲": 637, "ㄚ": 280, "虜": 572, "賂": 173, "嗆": 1500, "質": 1533, "捶": 3557, "塚": 1148, "ｔ": 1237, "脣": 535, "賤": 79, "砭": 851, "賢": 2205, "啜": 1440, "耨": 736, "箔": 5911, "園": 1633, "桀": 4252, "豢": 2037, "迤": 1991, "剛": 755, "賜": 1036, "悅": 5050, "箸": 3311, "揚": 1018, "曇": 547, "恥": 516, "乩": 2723, "餅": 803, "ｚ": 650, "∠": 3436, "輯": 1024, "笆": 4048, "賡": 561, "遠": 1810, "眾": 819, "餌": 1241, "曉": 1417, "潸": 1427, "輸": 565, "陸": 595, "恣": 6770, "喟": 1554, "頂": 1190, "暹": 2569, "單": 1809, "摯": 255, "ν": 293, "喲": 351, "僭": 638, "潛": 327, "瓯": 3983, "矗": 3853, "睥": 388, "##bor": 6375, "tt": 6374, "409": 4225, "龈": 7389, "##lp": 4635, "720": 7896, "273": 5272, "soc": 4210, "祯": 4732, "搀": 4511, "夔": 1489, "绫": 1625, "蜇": 2664, "淅": 3953, "dv": 3237, "730": 6858, "vogue": 2219, "︰": 2326, "餮": 3825, "遨": 2702, "捻": 2864, "##ken": 1880, "##bow": 789, "瞋": 284, "ⅲ": 4505, "##x2": 7835, "3600": 7349, "娲": 2200, "sports": 2532, "##ppy": 921, "##sd": 5079, "##tz": 4592, "flickr": 487, "##lio": 4045, "yahoo": 1299, "～～～": 841, "沒": 2037, "814": 2151, "##o2": 3109, "痣": 10799, "缨": 2605, "簪": 1586, "##μ": 3241, "羌": 6535, "洮": 1474, "course": 2028, "bbs": 2099, "address": 950, "l2": 1314, "##2007": 875, "library": 723, "shopping": 1690, "琥": 14220, "##ews": 1861, "缰": 1986, "葚": 2784, "炅": 6311, "##ias": 908, "谑": 1992, "sunny": 1081, "nbc": 1354, "movie": 1049, "classic": 1687, "fire": 2848, "maggie": 504, "遙": 1155, "蕭": 191, "極": 2339, "賊": 460, "蔣": 460, "箝": 540, "釣": 430, "澆": 702, "嗚": 326, "駁": 488, "誘": 167, "膩": 461, "揮": 490, "靚": 864, "脫": 510, "##ndi": 4574, "##ader": 2517, "3a": 4006, "vive": 4267, "##mini": 1993, "##hc": 5375, "kk": 4430, "翱": 3125, "±": 1886, "##～5": 4501, "##tl": 2567, "绥": 6711, "姝": 3018, "鸾": 1901, "盂": 2920, "donald": 1015, "##rman": 2408, "steve": 2021, "user": 2587, "##ience": 2475, "##ett": 2173, "field": 1471, "edition": 1759, "chan": 2453, "young": 4384, "##vel": 5337, "site": 1101, "##ash": 3804, "magazine": 710, "mobile": 4490, "blog": 2506, "轼": 4925, "煽": 5572, "蟒": 4654, "濮": 7414, "jan": 1982, "##ico": 2966, "铆": 3076, "cpa": 4866, "鹜": 3420, "america": 1464, "##sco": 4701, "oh": 3832, "beach": 1502, "258": 7362, "##gin": 7101, "##ming": 2629, "color": 8612, "峽": 134, "royal": 2084, "臼": 2756, "髂": 832, "1956": 5387, "##cker": 2162, "##bee": 1675, "骶": 1542, "2022": 7859, "##tation": 1311, "18k": 2998, "dac": 998, "5v": 2616, "1tb": 1431, "1901": 1431, "291": 4712, "412": 5244, "801": 5146, "蚌": 8280, "925": 2452, "1903": 1544, "867": 2259, "344": 3608, "346": 4535, "389": 4005, "705": 2479, "stop": 3279, "←": 6258, "龍": 1065, "饯": 1385, "魇": 1958, "猾": 3435, "★★": 6466, "⒈": 481, "⒉": 439, "⒊": 348, "⒋": 235, "816": 3186, "娉": 600, "颦": 1794, "##shine": 667, "frank": 2223, "##zer": 2034, "g9": 2008, "cst": 329, "嗖": 2844, "456": 3268, "album": 205, "##board": 2770, "1915": 2072, "苕": 748, "crm": 3213, "嵇": 1495, "5k": 2952, "漯": 4319, "618": 5174, "沌": 4815, "pay": 7316, "##ya": 9113, "zip": 1207, "gopro": 1018, "咻": 1221, "捱": 789, "▽": 16035, "曜": 5881, "##470": 1753, "b12": 1977, "##shop": 1543, "view": 3722, "##del": 2968, "##dom": 1674, "week": 2059, "where": 3738, "moon": 2024, "history": 1373, "chinese": 3485, "vera": 922, "melody": 395, "･": 27, "κ": 263, "##γ": 266, "075": 4893, "○○": 210, "esc": 3011, "lc": 4783, "steven": 1332, "code": 2890, "##code": 1815, "gay": 1508, "##mann": 1605, "＃": 4464, "node": 1204, "opera": 2366, "software": 906, "巽": 2438, "x2": 4380, "蚝": 9977, "s2": 5665, "埕": 621, "咣": 969, "##base": 1932, "闰": 1710, "720p": 2109, "x9": 987, "毓": 4809, "lake": 1632, "pci": 1829, "sata": 769, "##tags": 141, "rar": 1087, "dll": 201, "wind": 8840, "ftp": 507, "ctrl": 2386, "python": 2608, "write": 2593, "isp": 1413, "##uid": 1599, "alex": 2719, "e3": 3047, "##a1": 2910, "##2f": 450, "##fig": 1539, "office": 5507, "靛": 1199, "sns": 1472, "1889": 998, "剝": 762, "紡": 579, "絲": 1720, "遞": 256, "曄": 889, "ts": 7924, "##back": 2754, "dos": 1519, "##more": 1045, "icloud": 1194, "醮": 399, "弁": 278, "1947": 3710, "##2009": 883, "##2010": 2188, "嵩": 10270, "诩": 3675, "噶": 4133, "1886": 1172, "铀": 2061, "朐": 808, "逵": 1777, "袈": 663, "裟": 793, "龛": 2094, "1962": 4890, "##sl": 10267, "##v4": 4959, "孪": 1482, "iis": 289, "llc": 1044, "##act": 5155, "drive": 3534, "hip": 1792, "pk10": 51, "##ini": 5487, "榫": 1911, "crystal": 951, "姣": 3460, "糍": 1932, "鲈": 2473, "1868": 1414, "cmos": 2167, "nfc": 4022, "eos": 1408, "枳": 874, "##ml": 15515, "100ml": 3423, "腴": 1665, "kic": 2206, "甥": 3208, "pinterest": 781, "lock": 1661, "seven": 1282, "vision": 2313, "side": 1672, "font": 7668, "spark": 2203, "##atic": 5414, "##mine": 1492, "hill": 2640, "campaign": 534, "reuters": 296, "brian": 1500, "kelly": 1677, "叟": 1332, "掳": 1500, "g2": 3501, "舸": 2393, "禧": 14676, "txt": 702, "苜": 1108, "蓿": 1050, "遊": 662, "莆": 14611, "##ark": 3309, "喏": 1153, "501": 5470, "897": 2739, "話": 1036, "嘶": 4519, "鳕": 2206, "嗑": 3237, "嘞": 1910, "##sun": 1669, "action": 2001, "挝": 7767, "##sio": 497, "iso9001": 1071, "never": 2988, "诬": 2881, "儀": 192, "堀": 673, "醪": 856, "嗲": 2301, "槿": 10987, "atp": 1897, "ø": 1475, "tc": 4414, "霰": 460, "郅": 985, "3～4": 2084, "舛": 1384, "澧": 1730, "1960": 6127, "1968": 4250, "seo": 8811, "¥": 6505, "1950": 7149, "孱": 1173, "mega": 999, "##®": 3677, "膛": 3874, "##wood": 2264, "pink": 1158, "##pin": 3819, "佢": 2449, "##eep": 8644, "263": 6152, "佃": 741, "##⑥": 694, "##⑨": 87, "##⑧": 160, "bruce": 592, "##uel": 2244, "蚤": 2330, "耷": 1279, "鸵": 1709, "cup": 1977, "蹇": 623, "1885": 2041, "hadoop": 2241, "map": 2978, "shell": 1168, "##lina": 1986, "浣": 3557, "蜿": 7736, "蜒": 6404, "lady": 3452, "gaga": 1614, "柒": 2649, "##￥": 2893, "##field": 1774, "##ground": 3380, "##oe": 5972, "##lace": 828, "light": 5088, "running": 2699, "##ano": 2486, "sound": 2094, "ɡ": 470, "2gb": 4836, "ubuntu": 705, "sea": 4052, "##gate": 1081, "tesla": 1812, "##city": 2657, "pack": 2067, "‖": 1612, "篪": 1423, "zenfone": 3196, "true": 2990, "##uality": 1423, "##ces": 3660, "application": 1358, "##ock": 6063, "span": 3741, "##mv": 1338, "bye": 1088, "豉": 6231, "##works": 1322, "nas": 3024, "matlab": 313, "roger": 980, "372": 5179, "1860": 3366, "吖": 1208, "4066": 233, "∕": 387, "1931": 3014, "##via": 2426, "##°c": 2347, "嗒": 3165, "h7n9": 511, "©": 2618, "惦": 4265, "##ika": 1121, "谪": 622, "樯": 401, "楫": 485, "谗": 715, "霹": 3330, "雳": 3431, "湯": 188, "逶": 1235, "岷": 3928, "徨": 3295, "money": 3188, "profile": 591, "comments": 271, "natural": 1240, "夙": 1771, "嗷": 3589, "跺": 1614, "悌": 996, "忿": 1567, "##cept": 4380, "basic": 993, "##tton": 2428, "0800": 788, "柩": 1987, "鳅": 2865, "蝌": 1572, "蚪": 1504, "image": 2534, "菏": 4711, "崂": 6718, "grace": 1616, "妲": 2498, "谘": 1502, "殉": 3576, "g5": 4732, "queen": 1700, "forest": 834, "##lmer": 338, "##lin": 6156, "russell": 467, "##ena": 2070, "base": 4192, "value": 3486, "##mate": 1709, "joseph": 1277, "##vas": 1547, "info": 3489, "##ead": 2241, "##ision": 1648, "credit": 1449, "jose": 749, "france": 1161, "ford": 1452, "jones": 1071, "paul": 4849, "eclipse": 395, "ide": 1826, "github": 1880, "菅": 1985, "strong": 2658, "掛": 147, "佚": 1461, "##←": 1711, "brand": 2338, "竽": 767, "戬": 1173, "蛭": 542, "ofweek": 357, "box": 4266, "289": 5173, "hdmi": 3067, "rgb": 5833, "oled": 9294, "n1": 2098, "遼": 54, "瘸": 1819, "绾": 649, "usa": 2152, "xd": 4738, "013": 3097, "367": 4638, "mama": 1054, "鲑": 1549, "omega": 1261, "蛎": 4239, "貔": 25089, "貅": 25093, "怆": 887, "貘": 210, "##walk": 565, "剌": 1405, "hdr": 3739, "top10": 4910, "product": 3750, "232": 8164, "冼": 2011, "薹": 706, "汆": 2120, "煸": 8063, "澍": 1478, "##sit": 3983, "龅": 748, "522": 3411, "santa": 1031, "##rect": 4080, "瘪": 3261, "##list": 2169, "50ml": 1263, "啖": 1100, "衩": 3244, "##zzi": 459, "pixel": 3324, "##eam": 2825, "alexa": 1310, "羲": 5355, "dit": 490, "amg": 7088, "銮": 3228, "gc": 5197, "▌": 10191, "nice": 2182, "峨": 10451, "厝": 3679, "film": 1325, "##ule": 2437, "猗": 1009, "羸": 1234, "anna": 1797, "anti": 1492, "age": 2812, "r2": 2727, "q3": 6591, "saas": 6551, "腩": 6608, "387": 3250, "悻": 1103, "1904": 1742, "饷": 1861, "﹙": 116, "﹚": 116, "eric": 2477, "editor": 733, "菘": 370, "##１０": 1168, "##３": 8924, "##￣": 2493, "芃": 3054, "骜": 1507, "対": 253, "蛤": 6388, "蟆": 2317, "盱": 1661, "阖": 1604, "皈": 2358, "邰": 594, "1914": 1854, "1917": 1949, "筠": 2665, "1893": 1351, "##★": 6542, "ips": 3457, "幄": 2022, "﹁": 193, "﹂": 164, "礡": 77, "嶙": 1176, "峋": 1174, "柞": 700, "茏": 1266, "槎": 1181, "1895": 1801, "avi": 1401, "鞘": 2716, "rfid": 1808, "3c": 7426, "氹": 349, "瞓": 19, "嫲": 191, "揸": 128, "咭": 369, "卅": 584, "畀": 335, "哋": 615, "舊": 235, "gg": 2203, "溴": 1553, "h2": 7692, "铵": 2489, "##ick": 3433, "##ets": 2833, "黒": 448, "琬": 688, "##ince": 1403, "谟": 1219, "睨": 519, "唰": 1056, "孺": 2417, "gmat": 3494, "##ather": 1924, "別": 1969, "ups": 2461, "emc": 1528, "plc": 2118, "quot": 5873, "cross": 4708, "pvp": 2121, "evernote": 272, "涿": 1831, "email": 1819, "＂": 10450, "tripadvisor": 504, "2345": 839, "滓": 894, "珉": 2103, "##2013": 3112, "傀": 1939, "儡": 1864, "l1": 2636, "吩": 2147, "俠": 43, "晁": 1823, "扈": 3003, "粱": 4384, "铎": 3339, "蓼": 601, "锭": 3984, "聒": 531, "##ium": 1964, "醍": 1477, "醐": 839, "ofo": 4699, "##bike": 1681, "蝗": 1980, "嗳": 732, "##ova": 3062, "421": 4245, "1896": 1520, "##─": 1707, "璎": 636, "钏": 641, "棣": 3843, "棟": 77, "颉": 1303, "骥": 3224, "tag": 1800, "henry": 1237, "055": 4827, "鄱": 4095, "蚯": 2350, "蚓": 2536, "瞟": 803, "浃": 1172, "丐": 8015, "陳": 592, "##chel": 3562, "dji": 504, "堃": 1155, "畑": 448, "仞": 1043, "##orm": 4506, "bd": 2672, "镭": 2459, "淨": 526, "apk": 1056, "芎": 1137, "ㄟ": 124, "ㄏ": 23, "##als": 2263, "##nix": 771, "喋": 3883, "懋": 1370, "焘": 2555, "##tty": 1150, "绢": 3683, "thu": 1567, "##lly": 3302, "black": 5825, "罂": 2475, "鳴": 273, "樂": 994, "028": 5292, "oil": 1615, "##price": 366, "views": 326, "師": 1073, "學": 3994, "習": 514, "時": 5722, "塵": 160, "聞": 378, "養": 332, "##oz": 3006, "##jiang": 1631, "result": 1856, "芈": 3514, "薑": 251, "virtual": 888, "7x24": 190, "step1": 2505, "step2": 2250, "step3": 1815, "step4": 1225, "step5": 728, "1871": 1057, "砣": 731, "##np": 3593, "##ung": 3233, "榷": 2569, "觞": 1036, "荃": 2228, "歙": 1577, "frm": 3168, "cma": 4748, "缢": 988, "##ˋ": 23, "sui": 1682, "q4": 2898, "very": 3545, "氰": 3236, "淬": 2024, "times": 2691, "珪": 450, "苞": 4037, "孬": 574, "俚": 962, "垛": 2735, "庹": 481, "莴": 4382, "苣": 1508, "琏": 1499, "缥": 2083, "缈": 2083, "邝": 1672, "埼": 460, "钒": 1477, "弭": 1044, "創": 696, "alexander": 2021, "嘭": 1117, "nokia": 759, "gpu": 6363, "阉": 1913, "audio": 888, "set": 6037, "update": 1140, "wps": 518, "function": 2463, "蛔": 871, "##ail": 2292, "##lam": 2157, "wedding": 632, "wed": 608, "##hop": 1722, "jing": 2426, "1840": 2265, "c4": 5100, "荪": 975, "栀": 2208, "邛": 2715, "坍": 6831, "蹙": 949, "疥": 583, "剽": 1933, "‰": 2434, "ettoday": 226, "酐": 969, "500ml": 1098, "adobe": 1268, "沖": 342, "沅": 3199, "##■": 6555, "钡": 787, "囹": 836, "圄": 839, "す": 433, "##し": 2194, "啉": 868, "block": 2501, "〇": 3627, "suite": 673, "bc": 4905, "canada": 737, "诋": 3103, "simple": 1277, "agent": 458, "##ils": 745, "dance": 1349, "step": 9933, "skype": 1279, "019": 2570, "麾": 2662, "砗": 3052, "磲": 3063, "nature": 2687, "淩": 76, "瓒": 766, "鄞": 3218, "##ool": 2880, "lulu": 693, "##stack": 2149, "docker": 2023, "1882": 1291, "1929": 3593, "茼": 1087, "σ": 578, "##△": 724, "镳": 2619, "浄": 46, "anthony": 724, "asp": 2118, "璞": 5102, "##ｎ": 2965, "砧": 2139, "story": 1803, "艮": 3436, "village": 843, "##ape": 2777, "##urg": 1546, "z2": 2262, "##hone": 1302, "靥": 982, "salvatore": 323, "emma": 1424, "掇": 1318, "zen": 2226, "顆": 74, "豬": 226, "欖": 31, "點": 1471, "澱": 21, "勻": 92, "醃": 108, "頭": 922, "鍋": 239, "熱": 607, "鏟": 12, "驟": 116, "裝": 513, "盤": 260, "iot": 4462, "##tti": 2074, "hotels": 479, "cut": 1976, "##lax": 745, "##llow": 1667, "##unge": 669, "host": 1133, "罔": 2455, "ncc": 349, "kb": 1803, "amd": 4006, "cx": 6265, "钣": 2198, "恸": 771, "##ink": 3611, "##link": 2879, "##town": 1110, "ua": 2570, "暌": 466, "蜊": 2267, "sg": 2485, "吒": 2596, "##bbs": 1095, "腓": 2421, "汨": 971, "蹑": 1125, "囫": 701, "圏": 148, "孀": 776, "獒": 2658, "q10": 1031, "##its": 4215, "镰": 3191, "##own": 2371, "win8": 934, "firefox": 477, "reader": 425, "##2011": 1660, "1234": 2418, "～4": 913, "pizza": 1039, "sex": 1423, "saint": 1711, "coupe": 4354, "wish": 1313, "##box": 2723, "嬷": 2478, "500g": 3571, "珺": 3582, "order": 2051, "楮": 507, "society": 1058, "雒": 529, "forum": 600, "囡": 1832, "123456": 693, "胄": 1281, "袪": 334, "usb3": 866, "暄": 2571, "why": 3692, "##ose": 2969, "##ject": 2531, "beautiful": 1189, "children": 1884, "museum": 1112, "搽": 1404, "佥": 287, "dlc": 971, "i3": 2309, "raid": 698, "啻": 822, "檄": 617, "ｊ": 299, "##ｈ": 961, "##tto": 1215, "##ling": 5436, "ago": 1330, "##ggle": 627, "help": 3376, "##text": 1372, "create": 1738, "tour": 2650, "參": 539, "1884": 1057, "骅": 2557, "耆": 1139, "劾": 1510, "1899": 1879, "x86": 1230, "珏": 1620, "揶": 711, "揄": 731, "tpp": 3662, "蝸": 122, "ray": 1995, "碁": 1974, "u11": 230, "颛": 691, "f16": 348, "##love": 2157, "##ello": 1455, "##burg": 1155, "##ology": 1771, "##ions": 2945, "##nus": 873, "##uck": 2227, "▎": 3514, "稲": 72, "轶": 4407, "martin": 2264, "benz": 426, "螳": 2700, "煨": 2747, "庾": 2082, "074": 1455, "cio": 1532, "ecu": 913, "traction": 74, "electronic": 901, "##2008": 1187, "##nia": 2142, "谩": 3496, "##ncy": 1816, "⑩": 1046, "jerry": 607, "##mn": 3350, "瑗": 550, "殓": 1373, "迢": 3158, "bird": 1023, "昱": 5884, "cbs": 1368, "鲟": 2866, "楣": 1705, "泫": 786, "tiffany": 1408, "つ": 1679, "唑": 3828, "loft": 1847, "claire": 458, "n2": 2100, "kimi": 2619, "鬃": 1010, "歩": 202, "傩": 760, "胍": 952, "羚": 5015, "晞": 1119, "8cm": 862, "50cm": 577, "exhibition": 555, "##mg": 11710, "##times": 2301, "sao": 304, "遽": 493, "徵": 2065, "鲷": 923, "醣": 557, "祕": 320, "unit": 1402, "##ɡ": 1233, "##æ": 1302, "æ": 671, "##ory": 3219, "##ane": 3336, "##oon": 1583, "supreme": 1280, "θ": 740, "ns": 5778, "books": 1151, "窿": 2352, "qr": 2001, "鬟": 1627, "polo": 6104, "磡": 552, "铤": 2317, "1910": 2299, "howard": 504, "娑": 2174, "##m2": 3778, "俬": 98, "僮": 314, "##┃": 187, "yam": 950, "wiki": 800, "##dk": 1704, "##free": 862, "1938": 3906, "p9": 3549, "##ques": 1420, "search": 1238, "bear": 1098, "keep": 3594, "living": 1255, "travel": 2450, "##ream": 1905, "##rder": 3347, "椹": 1062, "嗬": 200, "铠": 3918, "##tta": 2099, "##pn": 795, "##icon": 309, "jennifer": 959, "paper": 1864, "e2": 2822, "tbs": 675, "published": 197, "church": 559, "weeks": 240, "months": 449, "links": 317, "##rcle": 711, "object": 1968, "##pact": 1264, "images": 666, "shadow": 655, "##lling": 1750, "spf": 2210, "justin": 1235, "##oka": 1557, "胥": 4043, "raw": 1770, "n3": 1342, "f2": 5196, "橼": 583, "蒡": 770, "菟": 675, "##may": 812, "css": 2668, "##ique": 1079, "##pop": 1041, "9595": 57, "isofix": 933, "swatch": 296, "赈": 1441, "跆": 5369, "乜": 494, "跹": 408, "檎": 585, "栎": 1068, "##fx": 3277, "uv": 4470, "绡": 727, "emba": 5998, "friend": 1531, "##verse": 1330, "##rity": 1007, "##kit": 2859, "rewards": 88, "entertainment": 1004, "瑠": 103, "##dog": 857, "醫": 2271, "铄": 1094, "廿": 2900, "煊": 1039, "萬": 1022, "類": 721, "輩": 173, "窮": 151, "際": 750, "懷": 557, "∞": 817, "fox": 2111, "dnf": 1448, "踟": 380, "暝": 205, "鹧": 677, "鸪": 681, "擘": 1226, "蕲": 1011, "瘴": 1078, "png": 1256, "banner": 760, "title": 2229, "##ax": 2662, "nov": 1159, "wd": 1683, "佤": 1368, "ㄒ": 277, "##ㄒ": 265, "吶": 227, "羿": 1581, "痿": 3554, "嘧": 527, "啶": 1174, "rna": 1347, "##nome": 412, "葯": 32, "璜": 1681, "滢": 1407, "刽": 686, "镣": 777, "##nos": 6955, "1v": 1121, "桠": 1201, "鹫": 1294, "為": 5301, "製": 1350, "癒": 129, "rights": 527, "reserved": 210, "return": 3383, "else": 1921, "煅": 657, "祂": 730, "憐": 114, "瑯": 383, "對": 2898, "鸢": 1770, "淙": 996, "鍊": 274, "##lux": 915, "##data": 3266, "matt": 4081, "vincent": 552, "資": 1509, "蟀": 883, "ｋ": 1059, "汩": 1319, "audi": 1258, "faq": 333, "board": 1478, "##mobile": 1314, "尕": 1895, "##ville": 987, "services": 1290, "##site": 1518, "稹": 628, "##ters": 1854, "壅": 495, "燔": 98, "藓": 1418, "骈": 427, "槭": 483, "━": 2282, "##━": 10964, "萋": 882, "##dical": 1455, "mount": 618, "舖": 226, "##anda": 1604, "visual": 970, "纰": 1014, "night": 3005, "sorry": 1190, "讧": 1081, "桧": 1602, "string": 1862, "坳": 1961, "婢": 1445, "町": 3972, "囉": 111, "ヘ": 105, "##ヒ": 443, "##ス": 1055, "凈": 98, "喹": 467, "薬": 115, "p2": 3951, "衮": 1199, "觐": 824, "恫": 251, "タ": 166, "##ア": 534, "##モ": 180, "##ント": 270, "##ク": 478, "##レ": 505, "##ハ": 521, "様": 197, "に": 2436, "を": 2086, "##して": 521, "##た": 1936, "頃": 78, "は": 2327, "##こ": 1231, "##んな": 183, "れ": 389, "##か": 3284, "##く": 1767, "##る": 1127, "##とは": 54, "って": 485, "##な": 1289, "##かった": 179, "##よ": 680, "##も": 1497, "##う": 2113, "と": 1495, "##ら": 1238, "##れ": 934, "##ない": 982, "##なら": 121, "##せ": 555, "##めて": 78, "もう": 89, "き": 1201, "し": 1733, "##さ": 988, "さ": 539, "た": 1274, "##って": 635, "い": 1667, "か": 2746, "##て": 1475, "る": 517, "##のは": 164, "優": 480, "##ね": 480, "強": 1127, "しい": 163, "貴": 446, "輝": 149, "いて": 213, "##タ": 440, "ま": 498, "##れて": 215, "愛": 1299, "##れは": 253, "##そ": 666, "あ": 857, "跡": 203, "##なる": 125, "##の": 2475, "涙": 91, "滲": 75, "む": 155, "##は": 1794, "も": 723, "##り": 1003, "その": 209, "て": 1414, "ん": 214, "##れた": 195, "両": 123, "いた": 185, "##から": 482, "##ひ": 324, "##と": 2308, "##ん": 2553, "##ゃ": 503, "え": 478, "える": 130, "な": 951, "##え": 430, "して": 405, "##いた": 351, "##い": 2570, "##たい": 301, "##ラ": 704, "##つ": 1022, "張": 966, "り": 1184, "続": 170, "け": 683, "勢": 507, "##とう": 247, "め": 239, "変": 323, "わ": 559, "また": 140, "##その": 99, "##き": 1193, "##っと": 190, "##を": 1082, "見": 1638, "##け": 775, "離": 475, "##ほ": 426, "##しい": 180, "planet": 817, "鳃": 1112, "##sol": 2756, "bbq": 1097, "##sia": 1083, "nhk": 945, "##ｇ": 1030, "伉": 768, "cool1": 2055, "д": 818, "浯": 225, "save": 996, "矍": 802, "coach": 2095, "jimmy": 1132, "ferragamo": 452, "gucci": 5111, "##lean": 395, "vans": 947, "##aft": 1708, "zara": 2793, "gap": 1887, "uniqlo": 731, "muji": 1476, "##oot": 2771, "##wing": 1106, "谲": 1143, "咄": 3324, "ruby": 948, "bing": 1382, "version": 725, "build": 3128, "files": 315, "distribution": 279, "##url": 1434, "file": 1633, "俎": 895, "菽": 308, "驮": 1942, "1010": 2086, "prada": 2275, "acer": 309, "5757": 65, "thinkpad": 1370, "e5": 2707, "歡": 500, "運": 901, "動": 1860, "認": 692, "應": 1085, "當": 1576, "讀": 494, "書": 2714, "繼": 259, "續": 491, "結": 944, "復": 766, "興": 542, "吳": 239, "慶": 229, "榮": 198, "設": 894, "個": 3574, "體": 1496, "須": 451, "課": 206, "濃": 102, "練": 269, "來": 3899, "級": 534, "關": 1505, "斷": 385, "開": 2163, "訓": 187, "職": 511, "實": 1457, "選": 858, "還": 1169, "臨": 247, "壓": 341, "顧": 288, "總": 762, "覺": 682, "漸": 193, "發": 2200, "與": 2839, "樣": 1185, "處": 915, "溝": 126, "談": 296, "遲": 389, "進": 1702, "贊": 176, "獎": 290, "維": 451, "銷": 303, "費": 578, "這": 3418, "帶": 775, "夠": 293, "賽": 301, "軍": 756, "銜": 51, "獲": 474, "廠": 206, "睞": 28, "赳": 1408, "镕": 2606, "c919": 861, "珣": 467, "body": 2345, "bag": 2391, "protected": 385, "access": 1153, "窨": 3167, "兖": 1902, "ems": 2101, "嗪": 1013, "铛": 4015, "mod": 4159, "甾": 904, "junior": 907, "俸": 1365, "涠": 650, "碇": 177, "kiss": 1894, "amy": 1376, "稗": 317, "##max": 5257, "蟾": 3417, "honda": 1910, "潴": 882, "垵": 785, "鹳": 1143, "bh": 2011, "##xon": 997, "##dra": 2430, "π": 931, "villa": 1087, "thai": 735, "chicago": 646, "california": 1716, "washington": 804, "edm": 758, "##cast": 1292, "搐": 4227, "100m": 3344, "e6": 1808, "®": 1527, "涞": 1417, "昉": 698, "process": 1717, "绀": 728, "锺": 845, "啟": 515, "##n2": 2733, "tila": 26, "##aka": 1199, "##ivity": 1666, "related": 410, "2m": 2839, "mango": 595, "叻": 1167, "刎": 617, "谀": 763, "膦": 1765, "##master": 1507, "oa": 3243, "4399": 687, "annie": 855, "echo": 2027, "宥": 2268, "##vg": 1017, "︿": 313, "蚵": 620, "遒": 1345, "诰": 696, "eds": 350, "哧": 1872, "jim": 2117, "##ｏ": 4068, "zol": 717, "##reen": 1760, "lifestyle": 440, "##lution": 1624, "##∣": 421, "ufo": 1993, "jay": 1515, "32g": 1476, "玷": 959, "tomtom": 227, "蝼": 368, "river": 1489, "##cake": 686, "涼": 197, "鮮": 394, "##ヘ": 312, "rebecca": 723, "minkoff": 275, "篁": 1115, "cream": 1042, "aws": 1613, "gartner": 1850, "##ｘ": 522, "maps": 353, "蔫": 1326, "isbn": 535, "978": 1959, "郦": 1510, "2765": 203, "萁": 184, "沭": 2354, "francis": 854, "侑": 761, "亳": 3261, "co2": 1620, "##tina": 1948, "麸": 1946, "chicken": 564, "shirt": 950, "friday": 397, "砼": 961, "桁": 833, "恚": 275, "橐": 224, "##⑶": 29, "##⑷": 18, "##tein": 929, "～～": 1821, "舷": 1844, "sql": 2741, "冏": 132, "乂": 259, "ｅ": 1595, "##rtex": 1837, "rf": 1969, "##wf": 1084, "dropbox": 658, "##load": 1339, "survey": 559, "##dget": 520, "咂": 1133, "泮": 906, "sars": 424, "booking": 435, "tiger": 2072, "♂": 711, "ivy": 382, "碓": 354, "dell": 1031, "union": 899, "##down": 1039, "铰": 1678, "whatsapp": 1026, "睽": 1813, "倏": 880, "苄": 534, "咲": 699, "##bscribe": 136, "##lock": 1679, "ｄ": 1131, "county": 371, "np": 2627, "彧": 1242, "瓤": 2023, "window": 950, "豺": 1255, "惇": 683, "齁": 412, "葳": 893, "顼": 564, "awards": 661, "official": 643, "trump": 1518, "gaming": 606, "過": 1907, "種": 1020, "歸": 227, "風": 1489, "emily": 796, "##⊙": 1343, "0mm": 704, "獐": 760, "##ｋ": 654, "bonnie": 234, "##type": 1857, "wave": 1434, "thread": 1378, "ganji": 39, "铨": 1320, "##hia": 965, "洸": 145, "##╭": 423, "滁": 3767, "骧": 566, "枱": 61, "ps3": 577, "幔": 1197, "牯": 618, "nata": 797, "荳": 4110, "驥": 604, "郤": 346, "蝨": 684, "譁": 608, "閾": 257, "隕": 208, "ら": 609, "霑": 902, "怏": 857, "よ": 523, "隸": 667, "臥": 190, "驕": 184, "馴": 74, "ょ": 779, "驛": 213, "蛻": 984, "倶": 259, "蜃": 1417, "邇": 385, "蠅": 156, "灘": 280, "穂": 163, "乗": 442, "逕": 545, "謾": 381, "謐": 197, "豐": 527, "滄": 159, "鬚": 300, "諡": 204, "闔": 55, "譚": 520, "ゅ": 93, "譏": 664, "擇": 311, "補": 352, "勁": 130, "謗": 197, "邊": 457, "謠": 152, "堺": 402, "謨": 211, "リ": 113, "や": 401, "驍": 48, "譽": 108, "顔": 327, "ゆ": 430, "鴨": 108, "刈": 410, "撻": 71, "貞": 166, "謎": 99, "壽": 469, "證": 3257, "區": 1057, "遶": 176, "呎": 582, "頑": 321, "慮": 289, "輔": 194, "証": 166, "##gas": 1374, "path": 1464, "##vd": 1426, "迴": 322, "濾": 21, "換": 301, "##core": 1355, "溫": 443, "##blog": 468, "阚": 1817, "筲": 250, "熵": 924, "俟": 560, "wilson": 582, "pony": 1060, "date": 1567, "disney": 512, "##dium": 1248, "discovery": 992, "channel": 881, "##mus": 1799, "valley": 964, "island": 1853, "station": 1266, "##□": 981, "腈": 578, "褔": 284, "﹣": 500, "god": 2461, "胤": 5339, "photoshop": 1905, "佻": 496, "##ｚ": 292, "ｍ": 948, "carlo": 817, "##∽": 103, "敝": 1368, "怙": 477, "痍": 637, "驷": 832, "articles": 420, "碚": 1930, "mhz": 323, "焜": 489, "##ⅲ": 194, "ⅴ": 2279, "##berry": 1088, "##rdon": 1003, "洹": 467, "xddd": 30, "嵋": 432, "stay": 1838, "殒": 1117, "m8": 2562, "捲": 150, "庠": 247, "噔": 1771, "蛆": 1027, "楽": 250, "苫": 611, "kitty": 1770, "觥": 783, "饴": 1089, "贲": 1933, "continue": 800, "炷": 829, "缙": 2032, "忪": 567, "mlb": 1543, "搡": 1820, "pepper": 1287, "machine": 1421, "security": 1302, "売": 163, "琍": 3096, "诤": 707, "rn": 3807, "垚": 1586, "顏": 524, "艷": 103, "鬆": 443, "討": 330, "綺": 55, "祗": 679, "饬": 1269, "蠹": 497, "跛": 1331, "铩": 723, "bell": 1235, "dns": 2132, "##stle": 846, "culture": 1192, "殁": 449, "message": 1061, "copy": 1096, "8591": 172, "陽": 814, "蛐": 856, "桉": 1226, "撷": 1325, "蕈": 274, "##ｅ": 3219, "ｏ": 628, "衞": 175, "arpg": 904, "skin": 1744, "℃": 1230, "噤": 458, "琇": 377, "sylvia": 163, "妪": 454, "鲛": 706, "30cm": 724, "颢": 723, "##sky": 1395, "##asia": 582, "pierre": 784, "荚": 2031, "ptt": 159, "qvod": 72, "author": 1050, "扦": 841, "day1": 681, "day2": 519, "day3": 408, "閒": 285, "趺": 246, "蕻": 400, "##fly": 1238, "cafe": 2014, "衾": 331, "挲": 607, "姫": 68, "hpv": 10558, "tree": 1698, "##point": 1628, "##tings": 668, "restaurant": 871, "##⑦": 129, "雑": 26, "萼": 886, "涔": 551, "皎": 1977, "疣": 1765, "asus": 253, "wwdc": 485, "contact": 718, "dsp": 2112, "gr2": 226, "powerpoint": 565, "festival": 1006, "£": 1306, "gary": 2931, "赧": 348, "v4": 1779, "疽": 1272, "忻": 5129, "pchome": 116, "陞": 238, "jackson": 937, "籼": 772, "fifa": 2082, "噁": 471, "渚": 3164, "纓": 10, "楸": 544, "woshipm": 71, "偈": 933, "颔": 563, "忤": 436, "谯": 1093, "centre": 692, "増": 404, "彈": 111, "圖": 668, "軸": 99, "蠟": 23, "vsa": 503, "radio": 1247, "client": 828, "##ql": 2110, "database": 387, "redis": 943, "mysql": 1916, "ngo": 1112, "adsl": 148, "崧": 720, "鈴": 124, "恁": 554, "pcb": 2883, "vga": 730, "##ette": 689, "momo": 595, "august": 604, "ｈ": 1374, "##atus": 681, "jquery": 599, "ajax": 453, "css3": 322, "edit": 559, "factory": 576, "candy": 832, "厩": 990, "臾": 753, "嬗": 608, "瘘": 1613, "747": 2974, "濂": 1461, "v9": 378, "佶": 785, "棹": 232, "裾": 394, "ieee": 1209, "｛": 326, "｝": 374, "玳": 1159, "標": 1361, "##google": 190, "wade": 237, "posted": 82, "脲": 941, "崆": 746, "峒": 962, "dark": 1228, "ryan": 1463, "衲": 362, "##uard": 1410, "##⑤": 973, "禛": 442, "陟": 689, "黜": 883, "佞": 484, "枋": 602, "則": 1000, "闇": 271, "吽": 184, "ming": 1258, "枰": 547, "apache": 998, "衹": 87, "説": 207, "関": 291, "穫": 36, "##shot": 1291, "##vy": 1623, "塩": 90, "爻": 2407, "summer": 1548, "december": 279, "systems": 1298, "##rum": 1409, "curve": 453, "諺": 18, "sgs": 644, "##trix": 734, "脇": 63, "skip": 215, "剋": 153, "幹": 292, "蟄": 297, "夢": 445, "lost": 1012, "##said": 74, "shift": 1498, "疳": 381, "鞑": 640, "靼": 429, "null": 1544, "ddd": 178, "error": 859, "夥": 424, "yoga": 1191, "帑": 273, "ssh": 500, "vpn": 975, "ssl": 865, "comment": 343, "巿": 688, "峇": 238, "槁": 490, "跖": 840, "屐": 558, "lucky": 972, "ios10": 1350, "膑": 924, "骠": 378, "椽": 586, "铣": 1717, "1870": 1438, "advanced": 1219, "apt": 998, "騷": 38, "戲": 230, "黃": 942, "貫": 133, "咗": 1751, "鶯": 33, "燒": 119, "兩": 1214, "網": 559, "羨": 48, "經": 2299, "歲": 455, "齊": 271, "轉": 609, "馬": 924, "蔭": 464, "媽": 160, "遺": 287, "傳": 1249, "紅": 767, "膚": 224, "錫": 60, "載": 353, "舉": 386, "寫": 530, "記": 1262, "緊": 242, "啲": 345, "囟": 724, "椪": 146, "tinker": 76, "##name": 1818, "##erry": 1799, "珥": 448, "蟎": 14, "mozilla": 306, "寬": 112, "況": 477, "##rley": 715, "faq1": 19, "##ｒ": 2117, "喺": 1238, "ｆ": 737, "kindle": 1705, "30ml": 1455, "longchamp": 111, "嵯": 428, "##cks": 1363, "##osa": 734, "cookie": 984, "sophie": 403, "峤": 390, "擢": 612, "秭": 855, "宓": 1419, "vim": 534, "埵": 147, "墀": 194, "醯": 125, "闍": 54, "盡": 328, "旃": 297, "g4g": 58, "monday": 428, "竜": 241, "剣": 36, "喰": 258, "啮": 839, "驚": 201, "詐": 192, "騙": 252, "瘋": 36, "數": 1020, "損": 185, "週": 634, "鐘": 498, "鏡": 155, "難": 717, "曬": 47, "辦": 443, "說": 2178, "會": 3476, "導": 465, "從": 1092, "連": 582, "報": 816, "稱": 731, "簽": 145, "額": 360, "達": 785, "該": 570, "員": 935, "偵": 49, "調": 792, "們": 2235, "蹤": 43, "島": 388, "議": 909, "讓": 691, "錦": 100, "詢": 243, "計": 839, "規": 420, "龐": 44, "億": 344, "驗": 494, "團": 519, "隊": 455, "卻": 455, "欽": 37, "適": 641, "誰": 338, "態": 418, "輕": 546, "場": 1712, "飯": 216, "華": 1045, "請": 888, "機": 1328, "構": 375, "聽": 325, "喚": 60, "彌": 66, "帥": 52, "買": 476, "屆": 154, "閉": 113, "問": 1055, "濟": 376, "環": 586, "縮": 113, "願": 405, "識": 597, "價": 990, "嗎": 251, "竅": 8, "雙": 380, "終": 636, "傑": 176, "論": 1221, "壇": 147, "將": 1601, "劃": 232, "決": 555, "視": 765, "潤": 188, "塊": 146, "貪": 77, "闖": 17, "執": 272, "罰": 121, "閣": 88, "違": 173, "檢": 142, "輪": 254, "輛": 66, "電": 1355, "車": 1507, "錯": 260, "錢": 327, "畢": 145, "預": 368, "貼": 191, "覽": 153, "債": 82, "殺": 321, "閱": 199, "訴": 161, "▇": 152, "##▇": 19, "wikipedia": 363, "賺": 119, "##≤": 1812, "編": 610, "hsu": 224, "钤": 1004, "仝": 877, "≧": 768, "##≦": 574, "徼": 77, "battle": 608, "﹕": 560, "﹖": 79, "ccd": 761, "##work": 2592, "##post": 556, "湫": 674, "儆": 761, "併": 200, "嫚": 479, "団": 76, "##ニ": 297, "##メ": 380, "産": 361, "レ": 138, "##ホ": 417, "##ート": 268, "14k": 329, "garden": 1088, "＿": 8298, "翦": 568, "溟": 716, "钎": 1077, "羥": 8, "纖": 57, "煙": 198, "皺": 19, "鈉": 13, "異": 391, "氫": 60, "蓖": 452, "銀": 565, "炔": 729, "莖": 158, "檸": 43, "鉀": 7, "卟": 320, "yumi": 325, "playstation": 2290, "哐": 894, "##ο": 579, "##λ": 278, "锟": 904, "standard": 1413, "ｓ": 1408, "苁": 772, "栄": 80, "々": 222, "樹": 252, "鼋": 550, "溱": 854, "┆": 233, "##share": 791, "server": 2203, "韓": 373, "dram": 2529, "◢": 537, "そ": 685, "から": 354, "##した": 318, "##ち": 774, "##のて": 227, "##ょう": 723, "実": 270, "てす": 201, "##けて": 107, "##わ": 749, "##かり": 133, "##に": 1774, "##ました": 350, "さん": 274, "こ": 1020, "##ような": 90, "この": 221, "##テ": 644, "##マ": 344, "##のてす": 60, "について": 92, "という": 152, "う": 643, "##なります": 15, "##いて": 266, "##ことを": 65, "##しています": 43, "しかし": 91, "とは": 31, "##ません": 109, "##きます": 60, "ひ": 469, "##ける": 150, "働": 60, "きを": 9, "っている": 85, "##てす": 300, "ては": 151, "##という": 195, "##イン": 162, "##ト": 740, "しています": 24, "として": 89, "りの": 29, "ても": 171, "##あ": 646, "##ります": 22, "する": 372, "##ために": 47, "##ール": 318, "##います": 100, "ル": 68, "##ては": 92, "てある": 72, "##す": 868, "には": 181, "##ため": 130, "##なく": 151, "##いるのて": 13, "￥799": 49, "##iko": 995, "##○": 424, "秣": 999, "privacy": 231, "鳳": 156, "剎": 296, "ニ": 79, "##セ": 147, "##コ": 466, "##ラン": 144, "##フ": 760, "##ツ": 180, "##リ": 601, "##ソ": 109, "##ム": 315, "キ": 137, "##ロ": 542, "##ノ": 154, "##ワ": 96, "サ": 160, "tcp": 1049, "##next": 548, "ｕ": 472, "踴": 222, "湧": 1339, "撓": 32, "颱": 614, "掃": 197, "挾": 176, "颯": 310, "↘": 727, "##ories": 823, "women": 1505, "blogger": 155, "alphago": 1219, "ソ": 113, "鸨": 347, "捌": 1116, "咘": 2872, "ios7": 278, "邨": 565, "摺": 511, "滝": 54, "##rail": 1019, "б": 545, "##о": 8609, "##л": 3141, "##ь": 1717, "##ш": 527, "##а": 7079, "##я": 1623, "г": 502, "##р": 3727, "monte": 694, "っ": 139, "##д": 2115, "vmware": 1138, "false": 927, "芫": 1003, "蚜": 643, "herme": 1155, "##▍": 505, "吡": 1460, "蜍": 798, "δ": 940, "珅": 2049, "珙": 599, "winrar": 73, "＾": 149, "xyz": 859, "##≈": 840, "##˙": 91, "##food": 1049, "ト": 269, "##ック": 224, "##√": 1527, "menu": 519, "胴": 322, "rmvb": 170, "golden": 967, "vdc": 340, "順": 272, "妝": 139, "##β": 367, "刪": 90, "mandy": 282, "鑑": 130, "蹼": 405, "呋": 790, "##rex": 611, "哌": 679, "劏": 99, "単": 98, "鼬": 1237, "evolution": 560, "髮": 880, "mastercard": 435, "俾": 1321, "濛": 1864, "♀": 186, "餚": 24, "匯": 334, "epson": 154, "«": 710, "钺": 491, "妣": 643, "孛": 477, "鼐": 418, "messenger": 1230, "##∕": 126, "粲": 596, "钿": 939, "##↘": 235, "欸": 244, "碛": 750, "痠": 101, "##µ": 154, "##ｙ": 564, "explorer": 548, "##drive": 1236, "##lone": 577, "轭": 281, "蘭": 547, "##bay": 477, "椋": 137, "盃": 102, "brake": 184, "day4": 323, "cambridge": 586, "##mll": 32, "圻": 865, "羣": 289, "ocean": 1348, "##orage": 798, "##÷": 2854, "攞": 111, "domain": 863, "coffee": 1910, "隣": 24, "舾": 526, "##ｌ": 1511, "cf1": 167, "8891": 130, "頫": 923, "＇": 250, "##ｗ": 1595, "rakuten": 47, "ヽ": 3228, "ノ": 200, "舂": 610, "針": 143, "±0": 462, "psp": 364, "##ケ": 234, "##ーム": 89, "ｃｐ": 162, "萊": 94, "獾": 651, "##fork": 72, "蚩": 1103, "##onsored": 108, "##beth": 882, "guest": 544, "##ß": 252, "蝈": 559, "巻": 99, "git": 1243, "nginx": 789, "xml": 1194, "category": 404, "wong": 530, "asics": 830, "〝": 810, "〞": 878, "蜢": 388, "ios9": 465, "諒": 29, "確": 457, "─": 930, "貿": 131, "領": 509, "並": 1229, "務": 1091, "減": 365, "響": 438, "攙": 2, "協": 351, "##west": 1189, "win7": 1306, "籤": 58, "徬": 49, "ads": 1486, "纨": 1067, "tweet": 173, "population": 460, "tue": 304, "##sday": 339, "テ": 158, "##ィ": 446, "##ン": 1505, "philips": 412, "9985": 31, "郢": 803, "岀": 411, "讫": 803, "穌": 8, "寶": 538, "hotmail": 347, "眙": 1584, "belle": 398, "く": 660, "った": 224, "はい": 90, "純": 172, "伝": 109, "##のか": 180, "になる": 75, "##ヤ": 78, "圧": 49, "している": 75, "##いる": 310, "み": 513, "緒": 150, "##ろう": 119, "##ハー": 179, "敗": 193, "##こと": 274, "気": 406, "試": 456, "狒": 966, "闆": 116, "恵": 204, "udn": 15, "vista": 537, "繫": 176, "獭": 1020, "﹡": 154, "archives": 340, "##キ": 409, "ハ": 459, "##ユ": 39, "窓": 22, "モ": 92, "##ネ": 151, "##っ": 586, "##リー": 204, "隠": 50, "##なった": 85, "##ぁ": 46, "##ふ": 326, "##ま": 836, "なと": 143, "##てすか": 113, "まて": 110, "##ゆ": 124, "##のてすか": 32, "##れる": 175, "にも": 81, "てすか": 74, "曖": 26, "##なりました": 36, "朧": 16, "##お": 623, "##かな": 148, "##や": 548, "##ます": 186, "##み": 657, "せ": 503, "##たけて": 25, "にこ": 13, "された": 44, "した": 350, "##カー": 114, "##ある": 303, "##りの": 32, "払": 44, "##んて": 237, "##すか": 85, "##サ": 207, "##ュー": 130, "##あり": 115, "##なから": 45, "絶": 137, "##みませんか": 3, "##あなたに": 2, "malaysia": 168, "taiwan": 273, "goods": 594, "讚": 211, "牠": 585, "april": 520, "msi": 607, "urn": 19, "圜": 593, "##kins": 870, "虻": 303, "戰": 571, "陣": 128, "擁": 185, "擊": 304, "較": 487, "雖": 378, "線": 480, "窩": 29, "賓": 103, "頗": 66, "顯": 319, "蝕": 46, "贏": 121, "備": 637, "搶": 78, "斬": 24, "籃": 67, "狀": 397, "囍": 501, "apr": 463, "挈": 639, "辊": 1209, "##◇": 490, "垩": 658, "dcs": 385, "▶": 4, "氖": 307, "笞": 595, "##ゝ": 145, "##∠": 162, "噹": 339, "蓁": 370, "側": 291, "##t00": 219, "##ˇ": 292, "爲": 2055, "铡": 707, "delete": 411, "鮭": 18, "蒟": 174, "蒻": 166, "brandt": 69, "arts": 1199, "arduino": 311, "##walker": 130, "斫": 344, "镗": 387, "install": 516, "瓏": 89, "fung": 150, "##σ": 189, "搖": 98, "臺": 382, "藝": 663, "術": 1106, "##¥": 548, "##╱": 995, "濬": 226, "绔": 601, "docomo": 254, "綑": 22, "奧": 206, "source": 1891, "powered": 271, "outlet": 396, "畹": 673, "﹒": 731, "ｒ": 489, "粿": 1826, "##◎": 336, "蟋": 897, "灬": 273, "##↗": 347, "麴": 95, "ψ": 273, "##｀": 1591, "##ヽ": 348, "堿": 22, "##⑩": 41, "菀": 750, "徹": 110, "氦": 938, "眦": 694, "晩": 198, "穎": 59, "愷": 30, "丼": 588, "##bug": 876, "剉": 26, "畦": 669, "叡": 236, "艋": 178, "舺": 110, "butler": 181, "february": 166, "簡": 507, "discuz": 81, "囗": 268, "绦": 647, "orz": 289, "ldquo": 139, "rdquo": 132, "卍": 321, "潔": 417, "渋": 137, "凪": 58, "込": 107, "愆": 161, "噸": 204, "璉": 156, "蝦": 65, "廳": 255, "兇": 40, "遷": 104, "財": 740, "壞": 111, "緣": 395, "淺": 74, "縷": 8, "聯": 505, "倫": 224, "納": 202, "氣": 947, "礙": 69, "夾": 98, "層": 264, "擺": 94, "獨": 427, "細": 679, "銳": 54, "劍": 103, "墻": 84, "產": 1272, "陰": 246, "爭": 277, "燈": 159, "審": 168, "觀": 811, "據": 447, "綠": 251, "藍": 184, "購": 292, "墜": 65, "幫": 164, "孫": 310, "聲": 495, "負": 307, "責": 252, "滅": 203, "魚": 488, "畫": 844, "圓": 334, "絕": 305, "戀": 112, "諧": 33, "衛": 336, "櫥": 15, "櫃": 57, "傷": 342, "災": 129, "禍": 73, "頻": 332, "喪": 72, "疔": 263, "暉": 178, "媾": 348, "煖": 26, "##baru": 376, "▂": 1494, "哂": 174, "抟": 346, "ケ": 88, "##ース": 189, "販": 97, "オ": 118, "##ーク": 95, "杼": 273, "艹": 594, "gundam": 50, "蔵": 91, "観": 147, "辺": 93, "ラ": 174, "﹏": 1728, "dyson": 436, "hitachi": 124, "麥": 73, "鱈": 10, "鯊": 32, "橫": 317, "藥": 283, "沢": 213, "斎": 109, "瀞": 56, "魍": 273, "啱": 245, "笹": 194, "搵": 230, "〃": 1204, "pacific": 887, "偉": 158, "rosie": 801, "jayz": 76, "蒼": 77, "許": 518, "颡": 304, "甦": 249, "組": 465, "擴": 110, "築": 233, "櫻": 33, "##moon": 405, "鎚": 31, "##＾": 61, "tower": 809, "愍": 245, "庫": 191, "gmt": 371, "φ": 1417, "##φ": 614, "幾": 490, "##ｊ": 284, "倬": 263, "挹": 328, "郧": 981, "浬": 86, "蕤": 337, "details": 658, "##host": 373, "labels": 65, "unix": 718, "ф": 319, "銭": 44, "倆": 67, "軟": 83, "＄": 293, "##＄": 57, "鮑": 40, "フ": 317, "##ミ": 195, "︶": 234, "##т": 4769, "##ы": 1798, "я": 140, "##п": 841, "##н": 4883, "##с": 3353, "##к": 2502, "##и": 7031, "к": 1081, "##в": 2476, "##у": 1762, "а": 413, "##м": 2101, "鉄": 122, "3ce": 140, "辇": 527, "閲": 165, "戦": 238, "鑲": 160, "鏈": 545, "ぇ": 95, "ュ": 185, "鍛": 104, "繚": 188, "樺": 94, "璁": 446, "ч": 585, "鑰": 109, "彫": 83, "ヤ": 104, "ユ": 142, "ㄥ": 135, "ワ": 101, "繃": 93, "ц": 123, "т": 848, "鎬": 134, "ㄨ": 84, "傚": 216, "鍥": 209, "¤": 105, "帯": 61, "尻": 336, "蒨": 564, "▃": 18, "##▃": 46, "蘇": 491, "2756": 270, "項": 529, "幣": 383, "擬": 76, "積": 283, "約": 855, "嶺": 245, "紹": 172, "營": 388, "廣": 716, "陝": 99, "戶": 427, "愜": 9, "訂": 262, "冊": 168, "outlook": 460, "籌": 122, "cms": 1389, "bwl": 26, "唷": 747, "##ctionary": 314, "﹗": 116, "expedia": 402, "dhl": 519, "posts": 117, "november": 318, "˙": 424, "祢": 375, "jcb": 264, "█": 968, "炁": 405, "猷": 785, "惡": 219, "攝": 222, "##▌": 500, "1mdb": 98, "膠": 504, "綱": 30, "糸": 183, "##∮": 12, "loading": 161, "暐": 121, "##ォ": 124, "宮": 537, "階": 170, "阕": 544, "寛": 79, "τ": 373, "阇": 219, "sidebar": 32, "kbs": 1287, "nana": 488, "カ": 217, "薙": 221, "琲": 35, "##│": 1861, "丟": 168, "oxford": 606, "統": 784, "収": 557, "転": 115, "傾": 117, "発": 353, "していると": 11, "経": 147, "済": 106, "総": 148, "ての": 37, "チ": 82, "##ャ": 321, "##ナ": 245, "##ット": 317, "##ールを": 7, "##へて": 35, "##する": 215, "拡": 23, "##った": 448, "コ": 199, "##スト": 132, "かある": 85, "による": 34, "ち": 683, "めた": 42, "##ことか": 145, "値": 96, "msg": 505, "捩": 139, "梶": 147, "磯": 97, "鬱": 82, "暢": 69, "訊": 372, "ikea": 273, "nego": 388, "萩": 151, "騰": 63, "飛": 473, "綜": 140, "飢": 111, "洩": 150, "繋": 13, "##ぇ": 31, "渾": 46, "樑": 403, "pwm": 325, "kde": 137, "##copyright": 23, "錄": 432, "歐": 275, "緩": 101, "尋": 195, "儘": 222, "趨": 98, "趕": 113, "穩": 202, "謂": 434, "儕": 10, "躍": 83, "虧": 45, "礎": 121, "釋": 266, "變": 858, "瀏": 33, "詳": 218, "絡": 250, "複": 408, "賠": 125, "償": 115, "監": 209, "屢": 33, "評": 351, "權": 471, "灣": 649, "毎": 254, "蕩": 68, "劇": 277, "巔": 34, "顛": 78, "療": 354, "聰": 66, "辭": 169, "僅": 310, "齡": 99, "撫": 75, "頓": 104, "詠": 153, "禮": 447, "羅": 510, "兒": 577, "▋": 1062, "祿": 107, "猶": 153, "碼": 124, "誠": 251, "鋪": 60, "樓": 595, "肄": 486, "堇": 543, "sogo": 202, "buffet": 250, "bbe": 170, "萘": 515, "痺": 38, "瀰": 28, "chapter": 462, "掲": 44, "児": 77, "ß": 45, "∥": 69, "槤": 16, "eleven": 1334, "<": 80, ">": 707, "netscape": 90, "〓": 904, "権": 73, "癲": 25, "硐": 268, "15058": 51, "糬": 143, "蹟": 104, "ｑ": 709, "##ｑ": 447, "侶": 50, "麵": 333, "##graphy": 608, "義": 967, "leonardo": 171, "親": 630, "お": 840, "windows7": 231, "辻": 243, "unicode": 291, "屍": 48, "聖": 439, "講": 404, "織": 194, "rcep": 204, "鈞": 28, "訪": 232, "ο": 580, "孃": 203, "墊": 71, "ie6": 92, "撐": 66, "ipv6": 375, "feb": 235, "駛": 123, "誤": 175, "廢": 114, "驅": 93, "腳": 229, "護": 382, "##posted": 3, "##ø": 266, "ш": 180, "盜": 140, "朮": 51, "╱": 464, "fpga": 1050, "##ェ": 157, "繩": 46, "潆": 111, "潟": 415, "緻": 292, "柢": 139, "檗": 173, "盧": 81, "sotheby": 54, "賀": 74, "##ウ": 358, "##む": 133, "##ゅ": 464, "蒐": 59, "marriott": 123, "ツ": 81, "湳": 46, "剷": 11, "稅": 127, "鍍": 42, "韻": 166, "navigation": 189, "鼹": 463, "о": 874, "teddy": 292, "download": 478, "楊": 427, "艙": 79, "玠": 259, "▉": 72, "諸": 283, "request": 932, "坵": 24, "##cms": 205, "檔": 97, "smap": 79, "в": 1545, "е": 282, "ж": 201, "и": 1181, "л": 302, "м": 718, "н": 1314, "п": 1607, "р": 554, "с": 1508, "у": 571, "х": 281, "ы": 5, "ь": 3, "##ч": 871, "η": 137, "ι": 130, "λ": 291, "υ": 81, "χ": 118, "##α": 1345, "鵬": 39, "棧": 18, "##∩": 49, "滾": 91, "噴": 96, "滙": 74, "##ager": 739, "豔": 58, "鬍": 52, "vps": 170, "皰": 14, "xdd": 27, "##last": 854, "diary": 118, "蘿": 79, "namespace": 112, "釐": 108, "≦": 141, "勖": 396, "穀": 128, "媞": 273, "僖": 477, "図": 71, "##ンク": 181, "##ろ": 446, "へ": 412, "##ター": 178, "agoda": 145, "鑽": 131, "##きた": 96, "ˇ": 426, "##⒈": 17, "##∞": 155, "∽": 499, "##〓": 474, "##♀": 11, "菸": 127, "⌒": 65, "##ε": 411, "##ν": 279, "##ρ": 263, "##δ": 207, "揆": 259, "##⌒": 31, "##nsis": 147, "燜": 16, "蓋": 310, "衝": 263, "##covery": 461, "検": 116, "広": 135, "マ": 160, "##オ": 229, "##いい": 137, "エ": 137, "帰": 70, "##よう": 160, "##ッ": 347, "##サー": 73, "##まて": 143, "遅": 24, "駅": 205, "麗": 464, "##けと": 79, "##め": 398, "##ても": 109, "価": 87, "より": 89, "##エ": 151, "##てきる": 27, "いお": 6, "ネ": 21, "のお": 37, "応": 100, "##この": 136, "シ": 268, "##ァ": 142, "##のお": 20, "姉": 46, "セ": 112, "##より": 42, "##へ": 282, "覧": 40, "ク": 168, "##のに": 70, "ヒ": 233, "歴": 43, "悪": 115, "##イト": 122, "焼": 120, "##にお": 14, "えて": 110, "験": 55, "##また": 86, "しく": 62, "ね": 155, "栃": 93, "稜": 124, "dollars": 272, "##f2016": 92, "ゝ": 117, "餘": 282, "##xure": 214, "綵": 46, "6991": 108, "westbrook": 90, "崁": 58, "滯": 346, "tags": 93, "motel": 96, "##ーン": 38, "##╳": 27, "茲": 76, "lofter": 342, "裏": 507, "sso": 124, "徴": 75, "##ンス": 83, "##ernel": 247, "莊": 343, "瑤": 69, "癥": 146, "隻": 379, "腦": 172, "殭": 52, "醜": 83, "読": 68, "connectivity": 155, "##facebook": 132, "靈": 283, "姦": 33, "蠱": 20, "繆": 46, "鱉": 10, "鹽": 56, "筍": 51, "拋": 160, "wam": 109, "譲": 25, "≡": 82, "菈": 105, "襬": 36, "##さん": 304, "農": 320, "孖": 471, "json": 873, "牆": 180, "嬿": 135, "嬌": 56, "║": 66, "漁": 115, "鄰": 68, "埸": 115, "rmk": 139, "archive": 153, "緯": 96, "僱": 115, "娛": 93, "臉": 113, "襲": 83, "鍵": 202, "爾": 389, "##pods": 489, "utc": 117, "晉": 439, "毆": 13, "縫": 47, "診": 107, "憶": 199, "亂": 263, "閃": 65, "擔": 173, "銘": 168, "濤": 67, "繞": 46, "鬧": 55, "鎖": 125, "鐵": 170, "攔": 13, "勵": 66, "sbl": 176, "┅": 36, "##┅": 78, "倖": 66, "##vertisement": 150, "adsense": 77, "fantasy": 447, "紗": 60, "測": 163, "##ⅳ": 36, "煩": 113, "##║": 9, "mkv": 195, "鈺": 15, "taipei": 103, "潑": 51, "憑": 96, "獻": 334, "殼": 33, "雜": 279, "棄": 140, "傢": 75, "edited": 84, "繡": 21, "綢": 55, "紀": 446, "魯": 214, "雛": 33, "銅": 182, "丿": 198, "9678": 33, "臟": 126, "帳": 94, "豈": 359, "墮": 50, "嚴": 380, "嚇": 115, "殤": 27, "腫": 83, "謀": 89, "##ㄟ": 7, "伕": 46, "縄": 43, "##ルフ": 36, "##£": 58, "禪": 138, "堅": 219, "黨": 214, "貢": 102, "鑒": 62, "薦": 67, "橋": 239, "紐": 90, "鄭": 211, "粄": 252, "択": 13, "績": 143, "継": 60, "絆": 19, "営": 98, "ㄌ": 13, "侷": 27, "##≡": 441, "凍": 78, "諏": 10, "恆": 154, "蕪": 14, "贛": 26, "貶": 21, "熾": 19, "囝": 101, "戡": 127, "r11": 113, "嘆": 61, "覷": 12, "尷": 43, "驀": 9, "##ュ": 199, "##イス": 85, "##ティー": 32, "ス": 234, "ウ": 74, "##ータ": 62, "vfm": 27, "๑": 3, "槻": 45, "瀬": 59, "迺": 136, "灑": 49, "犧": 38, "かお": 22, "あり": 46, "##いました": 44, "##ちの": 53, "にお": 137, "蘋": 139, "謝": 492, "髒": 23, "蠔": 92, "┌": 250, "##〇": 137, "燉": 24, "cookies": 315, "rainer": 86, "fgo": 313, "鴿": 19, "雞": 331, "暫": 73, "辯": 72, "歎": 64, "汙": 33, "淒": 23, "籲": 31, "##╮": 24, "##π": 477, "駒": 77, "県": 252, "##ゥ": 15, "ミ": 112, "ぁ": 20, "メ": 163, "喫": 55, "偽": 91, "6606": 132, "gohappy": 1, "跩": 61, "##ちゃん": 98, "貓": 111, "纏": 53, "鶴": 70, "莿": 12, "馮": 55, "lohas": 77, "勞": 216, "薈": 15, "啓": 135, "漢": 945, "擋": 34, "閘": 17, "紙": 248, "兌": 87, "緝": 26, "贓": 9, "毘": 230, "髪": 97, "敎": 71, "゜": 54, "葷": 26, "##е": 7143, "慣": 114, "篠": 89, "韋": 45, "blogspot": 102, "##º": 294, "12345678910": 107, "荖": 13, "盪": 38, "麩": 19, "##ヌ": 23, "waze": 70, "fedora": 157, "壆": 56, "ふ": 316, "瑀": 213, "綫": 65, "饋": 22, "蠣": 8, "貽": 11, "蘚": 5, "鎮": 180, "羈": 32, "汎": 226, "bytes": 255, "餵": 53, "歳": 134, "艦": 77, "##з": 947, "##б": 673, "##ニア": 34, "聶": 18, "轟": 103, "└": 176, "鱷": 13, "┊": 179, "##┊": 72, "桜": 71, "鮨": 128, "饗": 26, "⋯⋯": 29, "堙": 46, "hostel": 135, "嚮": 58, "訖": 5, "弒": 26, "烏": 89, "堯": 57, "詔": 34, "罷": 41, "圍": 186, "屄": 14, "貝": 157, "訣": 31, "紮": 30, "獵": 38, "窺": 26, "碩": 34, "粵": 131, "欄": 45, "獸": 73, "脈": 123, "閎": 30, "瘡": 22, "ㄋ": 10, "険": 32, "##リア": 65, "獣": 17, "嶽": 47, "##゜": 44, "薨": 235, "00㎡": 84, "隈": 293, "榱": 12, "嗰": 181, "gnu": 128, "墘": 91, "canmake": 169, "鷹": 107, "鄒": 185, "鯉": 79, "錘": 143, "閨": 73, "悽": 101, "譜": 112, "懶": 74, "紛": 171, "紋": 370, "紺": 27, "歓": 28, "嘯": 41, "hmv": 52, "樫": 50, "鳥": 182, "璿": 32, "睏": 58, "櫸": 2, "蒔": 31, "齋": 76, "繪": 118, "蓆": 45, "pixnet": 4, "㈦": 16, "##ーシ": 108, "瓊": 44, "てした": 35, "javascript": 168, "廁": 46, "ctrip": 68, "稟": 26, "詮": 33, "塢": 29, "勛": 10, "嶋": 257, "睪": 81, "撈": 136, "毀": 100, "##イフ": 64, "##レス": 40, "賴": 86, "戻": 26, "滷": 41, "滬": 74, "蘊": 48, "鎌": 58, "驒": 54, "騨": 56, "褲": 43, "##cm～": 23, "駕": 69, "郵": 72, "fsm": 126, "ecfa": 165, "諮": 60, "oops": 58, "ヶ": 24, "軌": 38, "##ф": 236, "##ц": 405, "##х": 803, "##г": 1177, "##ж": 644, "僕": 210, "鈕": 20, "詬": 8, "腎": 343, "##≧": 10, "轍": 7, "燿": 35, "kuso": 28, "##なと": 138, "ほ": 269, "渉": 39, "##との": 71, "##れている": 79, "##れます": 26, "##チ": 307, "##ョ": 127, "煥": 59, "##おり": 26, "##ンター": 50, "##かる": 48, "##ょ": 247, "廃": 15, "##には": 79, "##かあります": 11, "槍": 78, "纔": 56, "鎂": 6, "謙": 76, "‥": 67, "・": 88, "ㄧ": 189, "満": 138, "冨": 86, "崗": 46, "ㄤ": 67, "樁": 27, "勸": 52, "惱": 55, "薩": 144, "prefix": 85, "凱": 101, "侖": 11, "##twitter": 62, "e88": 42, "粧": 31, "棲": 35, "榖": 136, "奬": 54, "臓": 26, "隱": 209, "7866": 68, "µ": 81, "競": 238, "倉": 130, "冾": 17, "貳": 65, "韌": 10, "顫": 10, "樸": 121, "褫": 97, "fks": 17, "楓": 37, "肏": 24, "魘": 7, "scrum": 77, "##▂": 621, "釦": 72, "蠛": 52, "軀": 9, "館": 574, "嬸": 6, "狹": 25, "螢": 85, "磚": 32, "諾": 116, "虛": 238, "覬": 4, "覦": 6, "奪": 66, "縛": 30, "敵": 112, "誕": 63, "蠻": 40, "筆": 585, "霧": 103, "詩": 600, "憂": 128, "壯": 126, "爛": 37, "綁": 22, "釘": 13, "撃": 57, "鄉": 187, "麺": 49, "賞": 197, "鍾": 84, "矚": 5, "ˊ": 60, "ˋ": 68, "闢": 35, "鹹": 24, "瑋": 20, "佇": 32, "##ぃ": 19, "妘": 43, "##ㄌ": 5, "ぃ": 112, "厲": 41, "輒": 18, "檻": 21, "殘": 141, "邁": 41, "膿": 5, "繽": 22, "崙": 69, "賈": 79, "缽": 27, "処": 49, "脹": 28, "彆": 18, "疇": 16, "絢": 20, "贈": 75, "駿": 50, "勳": 80, "邏": 92, "棗": 59, "鄧": 67, "賦": 111, "呂": 137, "鴻": 90, "鋒": 136, "縣": 202, "闡": 98, "譯": 278, "臘": 19, "踐": 58, "肅": 82, "ける": 58, "誡": 10, "彙": 61, "幀": 20, "徑": 83, "謹": 57, "‧": 28, "嶄": 78, "効": 34, "嶇": 82, "ョ": 41, "冪": 47, "澗": 15, "憚": 21, "ャ": 28, "撥": 39, "##χ": 33, "駐": 68, "氾": 129, "濫": 27, "hola": 142, "moneydj": 33, "紳": 16, "瀆": 13, "儲": 53, "擾": 105, "荘": 37, "ホ": 178, "##テル": 71, "ェ": 16, "schemas": 9, "險": 481, "弾": 43, "褻": 10, "≒": 5, "ㄎ": 2, "##ㄚ": 10, "ㄆ": 3, "##ㄤ": 2, "廚": 80, "濕": 73, "飲": 271, "餾": 4, "悶": 41, "劑": 29, "綴": 27, "鵝": 16, "燻": 52, "iherb": 32, "鞏": 24, "##ロク": 19, "緋": 11, "寵": 42, "霊": 19, "イ": 161, "##ション": 49, "∙": 23, "º": 45, "抜": 79, "溼": 27, "fc2": 32, "軒": 86, "觸": 135, "煉": 37, "頒": 49, "憤": 87, "湊": 250, "嘗": 161, "塗": 158, "繹": 23, "訟": 22, "窪": 30, "##∥": 38, "衆": 104, "曠": 24, "壺": 94, "gogoro": 135, "▪": 30, "さい": 88, "盞": 10, "綬": 14, "齒": 41, "馳": 38, "癡": 58, "覚": 61, "ー": 76, "憲": 49, "謔": 37, "傘": 61, "豎": 141, "鳩": 110, "槓": 42, "媧": 10, "鰻": 9, "諷": 43, "錐": 60, "闕": 111, "匱": 34, "錶": 360, "##㊣": 1, "鎊": 17, "漬": 20, "奮": 68, "唄": 18, "飄": 61, "漿": 25, "餡": 19, "瀝": 46, "滌": 77, "獷": 3, "撿": 15, "硯": 32, "詰": 16, "莢": 6, "詛": 3, "嘩": 25, "詭": 19, "壢": 3, "饑": 14, "鮪": 12, "頡": 11, "閏": 8, "軾": 5, "瑣": 13, "詫": 13, "簾": 66, "錨": 8, "鋼": 67, "##◤": 42, "壊": 48, "畝": 20, "婁": 52, "鑼": 20, "嬪": 120, "欒": 25, "繕": 23, "ヨ": 62, "竊": 65, "擠": 24, "廂": 29, "瑩": 48, "瀾": 28, "##ちは": 50, "覓": 16, "瀅": 32, "vdf": 26, "##ˊ": 26, "闊": 59, "諱": 90, "閻": 45, "鬥": 119, "閹": 13, "澀": 24, "鈍": 23, "爍": 11, "縱": 91, "懸": 65, "斂": 61, "禿": 6, "聳": 10, "敘": 84, "貯": 26, "儉": 30, "廬": 42, "蠶": 10, "謬": 23, "禦": 39, "厭": 70, "淚": 73, "飽": 83, "晝": 18, "淪": 27, "誦": 66, "攬": 13, "廟": 78, "餓": 25, "醞": 6, "釀": 33, "貧": 165, "閡": 1, "繭": 7, "鵲": 11, "駭": 15, "鱗": 16, "蟲": 95, "龜": 37, "頹": 17, "頸": 31, "閑": 36, "糾": 41, "懼": 47, "鰓": 4, "淵": 40, "綿": 66, "翹": 14, "牝": 147, "頌": 43, "燭": 27, "攜": 49, "荊": 67, "婦": 243, "疊": 35, "詣": 7, "絹": 10, "牽": 47, "攣": 6, "寢": 20, "誅": 37, "誣": 9, "頰": 6, "鎔": 10, "濁": 22, "遜": 42, "暈": 16, "葦": 8, "嚨": 4, "箋": 33, "騎": 89, "鯨": 18, "擲": 5, "矯": 15, "渙": 9, "慚": 17, "慘": 75, "獰": 4, "鑿": 32, "獄": 79, "墳": 19, "誼": 45, "叢": 59, "鏢": 8, "貸": 72, "檯": 58, "##ㄧ": 3, "廈": 103, "瀉": 17, "鯰": 5, "蔘": 157, "燦": 48, "ぬ": 57, "鉤": 29, "喬": 83, "譎": 84, "諫": 34, "糰": 19, "灝": 19, "霽": 20, "仮": 42, "闘": 45, "糧": 52, "##ことて": 73, "軽": 72, "される": 30, "##ありません": 27, "すく": 32, "##ーション": 57, "める": 60, "##します": 196, "従": 30, "##なり": 102, "##ましょう": 33, "っています": 20, "きな": 55, "労": 37, "##あります": 30, "ろ": 55, "されています": 9, "れた": 48, "囲": 35, "もっと": 33, "饅": 8, "ます": 35, "れる": 44, "##かも": 31, "##ませんか": 40, "訳": 82, "により": 12, "めて": 78, "腸": 100, "とても": 15, "はお": 16, "銃": 23, "##っています": 26, "##きました": 33, "たと": 46, "います": 69, "##ヨ": 42, "渦": 8, "##ⅴ": 22, "撚": 21, "amana": 19, "彎": 72, "緹": 21, "饒": 34, "##ッフ": 118, "##η": 131, "簷": 28, "鵰": 14, "舎": 33, "##サイト": 19, "顴": 13, "嚥": 15, "睜": 11, "瞞": 13, "いを": 30, "頤": 28, "騁": 14, "駱": 22, "輿": 31, "筊": 111, "膾": 24, "═": 15, "鑾": 16, "嚀": 19, "雰": 23, "そんな": 36, "綸": 11, "靄": 9, "##ぬ": 76, "##ように": 131, "けた": 53, "##κ": 113, "慫": 9, "牴": 24, "##█": 118, "ゃ": 9, "鐮": 16, "鉗": 11, "襯": 17, "鉚": 3, "錠": 4, "廝": 15, "スタッフ": 4, "聴": 43, "します": 59, "てきる": 26, "##よって": 25, "槳": 5, "儂": 5, "濱": 41, "悵": 12, "絃": 14, "橢": 11, "嗇": 22, "峴": 6, "暱": 66, "鋅": 4, "鴦": 22, "戸": 115, "駄": 26, "糞": 20, "頁": 81, "雋": 14, "繳": 27, "懇": 11, "舗": 13, "隴": 25, "囂": 50, "甕": 22, "眞": 53, "蟻": 19, "弔": 18, "甌": 9, "鬢": 80, "礫": 10, "閩": 28, "籠": 26, "謁": 13, "鴛": 22, "釵": 25, "嬰": 67, "絨": 22, "歯": 10, "潰": 52, "簦": 17, "##◢": 106, "飆": 51, "##═": 171, "▅": 314, "##▅": 660, "##キンク": 21, "##をこ": 10, "##ての": 24, "覇": 18, "くの": 39, "もちろん": 6, "##くたさい": 81, "脅": 19, "攤": 41, "ナ": 45, "闌": 79, "瀟": 18, "蟬": 4, "凜": 20, "裊": 15, "綻": 19, "鱔": 14, "蔥": 51, "樞": 19, "唸": 73, "緑": 42, "嘔": 16, "罵": 29, "絵": 42, "贅": 11, "への": 36, "悩": 17, "かあります": 20, "なら": 42, "そして": 32, "なのて": 15, "との": 45, "鑄": 26, "轅": 25, "髖": 11, "緬": 20, "爐": 34, "銹": 21, "賃": 20, "鯛": 23, "剤": 9, "縝": 10, "篩": 15, "蔔": 84, "輓": 25, "ntd": 62, "ロ": 77, "♥": 8, "##ナー": 30, "癮": 29, "誇": 49, "ッ": 10, "tvg": 57, "誥": 18, "##υ": 94, "##™": 75, "柵": 20, "専": 47, "nownews": 6, "鉉": 3, "鰍": 39, "嫻": 6, "lamigo": 4, "wali": 24, "nikkie": 23, "墾": 13, "▲top": 23, "##なたの": 19, "られた": 13, "縁": 17, "insee": 35, "##⑵": 35, "揀": 42, "驢": 16, "揹": 58, "##㈦": 2, "##ψ": 26, "##№": 8, "締": 49, "姪": 34, "獼": 15, "籐": 21, "仏": 31, "嘮": 17, "礪": 14, "##⑴": 228, "鏤": 23, "緞": 11, "鎗": 28, "濺": 6, "搗": 20, "をこ": 14, "しの": 42, "いてす": 45, "##くれる": 16, "##とても": 22, "からの": 6, "挙": 55, "鑊": 16, "鷺": 14, "籟": 10, "録": 84, "癱": 20, "瘓": 9, "兲": 42, "駝": 18, "嫵": 28, "64㎡": 19, "ァ": 3, "亜": 22, "膽": 45, "鸞": 12, "または": 15, "顎": 29, "啞": 12, "擄": 14, "喎": 29, "##τ": 204, "adchoice": 3, "のこ": 46, "しました": 70, "##おります": 39, "鰲": 25, "pmid": 28, "攢": 15, "ㄇ": 19, "氷": 40, "庁": 20, "綏": 35, "なお": 13, "鶩": 7, "trackback": 1, "ム": 19, "銑": 22, "慄": 14, "╳": 58, "鹼": 4, "鈣": 7, "錚": 11, "慳": 12, "檳": 4, "錳": 3, "躊": 5, "黴": 17, "壘": 26, "鰭": 15, "壩": 9, "颶": 2, "靦": 7, "楨": 16, "瘧": 4, "謄": 6, "轎": 5, "莧": 4, "諦": 13, "靂": 15, "饈": 5, "禱": 9, "犢": 1, "龔": 18, "鵜": 5, "桿": 59, "瞇": 37, "鉛": 36, "礦": 33, "彅": 4, "❀": 8, "☞": 10, "竇": 30, "籮": 1, "囑": 21, "鋸": 10, "絳": 26, "鐺": 4, "紉": 6, "##てお": 22, "サーヒス": 9, "頼": 44, "わせ": 30, "##⒋": 7, "##⒊": 6, "##ι": 383, "鷲": 26, "##┆": 11, "顱": 6, "襪": 20, "傭": 15, "ン": 10, "煒": 17, "檜": 5, "鯖": 8, "くたさい": 17, "けます": 11, "をお": 26, "纍": 16, "蕎": 10, "∮": 24, "lonzo": 2, "﹍": 53, "囪": 52, "脛": 18, "艱": 24, "氈": 11, "摳": 6, "㊣": 8, "am09": 6, "獅": 32, "訶": 29, "瀧": 30, "##╯": 13, "袞": 9, "##♂": 47, "埤": 72, "駆": 20, "瞼": 6, "敍": 14, "##⑸": 6, "姍": 5, "揃": 11, "みてす": 1, "りは": 12, "##やり": 22, "##コメント": 16, "てお": 10, "なとの": 21, "琺": 84, "wikia": 9, "綾": 35, "嬤": 10, "##ɔ": 1, "擡": 8, "薔": 11, "擷": 11, "いいえ": 28, "蠍": 41, "扱": 19, "諭": 20, "鄺": 5, "釁": 8, "00z": 20, "蒞": 36, "##¤": 45, "涇": 6, "ィ": 13, "諗": 9, "ebooks": 10, "聾": 12, "##labels": 6, "鷗": 12, "芻": 7, "##こさいます": 50, "sputniknews": 5, "燁": 8, "奐": 9, "掙": 18, "懲": 24, "塭": 19, "鐲": 10, "軋": 7, "勧": 31, "蜆": 47, "慟": 7, "篤": 32, "閥": 17, "釧": 15, "鴕": 5, "鎧": 10, "賁": 7, "嗶": 9, "竄": 12, "燼": 14, "嘜": 7, "殲": 4, "懾": 17, "輟": 8, "鄲": 8, "鈾": 4, "齣": 17, "鑣": 4, "瀋": 32, "轆": 1, "蕁": 6, "臍": 14, "├": 340, "壟": 13, "譴": 16, "攪": 27, "##⒉": 9, "trivago": 16, "avira": 5, "はすへて": 2, "瘍": 8, "薊": 14, "fairmont": 50, "巒": 8, "僥": 9, "斃": 13, "襠": 4, "頷": 6, "ォ": 3, "瀨": 8, "hbl": 15, "✪": 2, "諳": 7, "鋁": 7, "畳": 7, "攏": 12, "ㄅ": 3, "鉑": 27, "馭": 6, "飪": 12, "ってくたさい": 9, "ﾟ": 1, "##ﾟ": 3, "ﾉ": 2, "∀": 2, "╚": 5, "##をお": 9, "いします": 13, "てきます": 6, "サイト": 15, "されます": 14, "ヲ": 5, "摀": 14, "##ーシてす": 1, "ㄉ": 6, "讞": 5, "簫": 16, "骯": 10, "饌": 8, "ゥ": 7, "ヌ": 2, "擰": 5, "鈔": 24, "｡": 19, "紓": 9, "鏗": 13, "儷": 18, "燄": 14, "憫": 9, "鏘": 4, "鳶": 4, "のある": 6, "瀕": 6, "なし": 7, "sodu": 3, "〜": 3, "になります": 8, "誹": 8, "嚕": 12, "あります": 7, "厳": 18, "嘖": 11, "鵡": 11, "摟": 20, "鞦": 11, "飼": 25, "be2": 15, "轄": 17, "訛": 51, "脳": 21, "frigidaire": 5, "鴉": 19, "､": 21, "絞": 11, "癇": 5, "♦": 8, "™": 15, "擼": 16, "幟": 8, "諄": 9, "緘": 8, "訝": 17, "罌": 2, "訥": 6, "颳": 7, "齦": 18, "釗": 9, "鄔": 1, "飩": 1, "鏞": 4, "鱸": 4, "籬": 6, "鈦": 9, "蹣": 4, "譙": 15, "猙": 3, "魷": 15, "禎": 27, "輾": 13, "詼": 6, "噓": 24, "しており": 10, "燙": 15, "##skip": 16, "蹺": 6, "謊": 5, "婭": 27, "script": 10, "閔": 21, "紂": 17, "詆": 4, "韜": 6, "穢": 10, "fpx": 6, "屜": 6, "贖": 12, "洶": 13, "ed2k": 3, "##┌": 3, "##├": 54, "憊": 6, "徠": 11, "齢": 11, "殞": 9, "癬": 10, "懺": 10, "ˋ▽ˊ": 1, "ios11": 5, "鰾": 2, "癢": 5, "鋤": 9, "みの": 9, "からお": 3, "儼": 5, "ㄞ": 1, "辮": 13, "賄": 8, "##クセス": 7, "錮": 9, "髏": 5, "韆": 8, "蘆": 13, "窯": 23, "劊": 5, "⋯": 5, "##ヲ": 2, "潧": 4, "鹵": 6, "詡": 7, "瀘": 5, "鍺": 1, "躪": 2, "鐸": 9, "滸": 3, "銓": 7, "纜": 7, "ㄢ": 7, "龕": 4, "##¹": 1, "メーカー": 4, "topapp": 4, "萵": 3, "##ますのて": 2, "vornado": 9, "躋": 4, "goris": 1, "##└": 28, "饞": 3, "##▉": 41, "hgih": 1, "嘸": 6, "颼": 5, "驊": 5, "##▋": 16, "餒": 8, "痙": 4, "嘍": 4, "鎳": 3, "fandom": 21, "濘": 4, "訕": 3, "孿": 3, "┣": 2, "噠": 10, "00kg": 1, "騏": 10, "鋰": 3, "梟": 8, "銬": 2, "歛": 13, "紜": 5, "かこさいます": 1, "璽": 13, "鏽": 17, "さんも": 3, "☀": 1, "してくたさい": 10, "螞": 5, "櫛": 2, "鶘": 6, "##ヶ": 6, "縴": 8, "諜": 5, "##ルハイト": 2, "##€": 3, "##๑": 1, "摻": 17, "##ㄎ": 5, "軼": 3, "xuite": 1, "嘰": 2, "鵑": 4, "銖": 6, "鈪": 1, "❤": 7, "鈀": 2, "櫚": 5, "ㄍ": 7, "ㄛ": 1, "airmail": 2, "擱": 3, "頜": 3, "◕": 1, "嶼": 32, "鯽": 5, "##ことかてきます": 2, "餛": 5, "簍": 2, "##∙": 2, "かかります": 1, "−": 7, "inparadise": 1, "ロクイン": 1, "##ッセーシを": 1, "jchere": 4, "鸚": 5, "縈": 5, "皚": 4, "藹": 6, "饍": 6, "pinkoi": 2, "##ㄨ": 1, "##ㄢ": 1, "殯": 2, "獺": 1, "躉": 2, "gomaji": 1, "worldcat": 4, "せよ": 2, "貰": 2, "309b": 9, "鐳": 2, "狽": 5, "贍": 1, "##ㄅ": 1, "##ㄆ": 1, "##−": 1, "➜": 3, "燴": 1, "##ﾞ": 1, "テリヘル": 1, "€": 2, "㗎": 1, "鍰": 1, "##♥": 2, "✦": 7}